#include "model_data.h"

alignas(8) const unsigned char g_model[] = {
  0x1c, 0x00, 0x00, 0x00, 0x54, 0x46, 0x4c, 0x33, 0x14, 0x00, 0x20, 0x00,
  0x1c, 0x00, 0x18, 0x00, 0x14, 0x00, 0x10, 0x00, 0x0c, 0x00, 0x00, 0x00,
  0x08, 0x00, 0x04, 0x00, 0x14, 0x00, 0x00, 0x00, 0x1c, 0x00, 0x00, 0x00,
  0x98, 0x00, 0x00, 0x00, 0xf0, 0x00, 0x00, 0x00, 0xf0, 0x20, 0x00, 0x00,
  0x00, 0x21, 0x00, 0x00, 0xe4, 0x22, 0x00, 0x00, 0x03, 0x00, 0x00, 0x00,
  0x01, 0x00, 0x00, 0x00, 0x10, 0x00, 0x00, 0x00, 0x00, 0x00, 0x0a, 0x00,
  0x10, 0x00, 0x0c, 0x00, 0x08, 0x00, 0x04, 0x00, 0x0a, 0x00, 0x00, 0x00,
  0x0c, 0x00, 0x00, 0x00, 0x1c, 0x00, 0x00, 0x00, 0x3c, 0x00, 0x00, 0x00,
  0x0f, 0x00, 0x00, 0x00, 0x73, 0x65, 0x72, 0x76, 0x69, 0x6e, 0x67, 0x5f,
  0x64, 0x65, 0x66, 0x61, 0x75, 0x6c, 0x74, 0x00, 0x01, 0x00, 0x00, 0x00,
  0x04, 0x00, 0x00, 0x00, 0x90, 0xff, 0xff, 0xff, 0x02, 0x00, 0x00, 0x00,
  0x04, 0x00, 0x00, 0x00, 0x08, 0x00, 0x00, 0x00, 0x6f, 0x75, 0x74, 0x70,
  0x75, 0x74, 0x5f, 0x30, 0x00, 0x00, 0x00, 0x00, 0x01, 0x00, 0x00, 0x00,
  0x04, 0x00, 0x00, 0x00, 0xde, 0xfe, 0xff, 0xff, 0x04, 0x00, 0x00, 0x00,
  0x0e, 0x00, 0x00, 0x00, 0x6b, 0x65, 0x72, 0x61, 0x73, 0x5f, 0x74, 0x65,
  0x6e, 0x73, 0x6f, 0x72, 0x5f, 0x33, 0x00, 0x00, 0x02, 0x00, 0x00, 0x00,
  0x34, 0x00, 0x00, 0x00, 0x04, 0x00, 0x00, 0x00, 0xdc, 0xff, 0xff, 0xff,
  0x05, 0x00, 0x00, 0x00, 0x04, 0x00, 0x00, 0x00, 0x13, 0x00, 0x00, 0x00,
  0x43, 0x4f, 0x4e, 0x56, 0x45, 0x52, 0x53, 0x49, 0x4f, 0x4e, 0x5f, 0x4d,
  0x45, 0x54, 0x41, 0x44, 0x41, 0x54, 0x41, 0x00, 0x08, 0x00, 0x0c, 0x00,
  0x08, 0x00, 0x04, 0x00, 0x08, 0x00, 0x00, 0x00, 0x04, 0x00, 0x00, 0x00,
  0x04, 0x00, 0x00, 0x00, 0x13, 0x00, 0x00, 0x00, 0x6d, 0x69, 0x6e, 0x5f,
  0x72, 0x75, 0x6e, 0x74, 0x69, 0x6d, 0x65, 0x5f, 0x76, 0x65, 0x72, 0x73,
  0x69, 0x6f, 0x6e, 0x00, 0x06, 0x00, 0x00, 0x00, 0xfc, 0x1f, 0x00, 0x00,
  0xf4, 0x1f, 0x00, 0x00, 0xa4, 0x00, 0x00, 0x00, 0x94, 0x00, 0x00, 0x00,
  0x74, 0x00, 0x00, 0x00, 0x04, 0x00, 0x00, 0x00, 0x72, 0xff, 0xff, 0xff,
  0x04, 0x00, 0x00, 0x00, 0x60, 0x00, 0x00, 0x00, 0x10, 0x00, 0x00, 0x00,
  0x00, 0x00, 0x00, 0x00, 0x08, 0x00, 0x0e, 0x00, 0x08, 0x00, 0x04, 0x00,
  0x08, 0x00, 0x00, 0x00, 0x10, 0x00, 0x00, 0x00, 0x24, 0x00, 0x00, 0x00,
  0x00, 0x00, 0x06, 0x00, 0x08, 0x00, 0x04, 0x00, 0x06, 0x00, 0x00, 0x00,
  0x04, 0x00, 0x00, 0x00, 0x00, 0x00, 0x00, 0x00, 0x0c, 0x00, 0x18, 0x00,
  0x14, 0x00, 0x10, 0x00, 0x0c, 0x00, 0x04, 0x00, 0x0c, 0x00, 0x00, 0x00,
  0x81, 0x83, 0xad, 0x83, 0x00, 0x81, 0x84, 0x7c, 0x02, 0x00, 0x00, 0x00,
  0x02, 0x00, 0x00, 0x00, 0x04, 0x00, 0x00, 0x00, 0x06, 0x00, 0x00, 0x00,
  0x32, 0x2e, 0x31, 0x37, 0x2e, 0x30, 0x00, 0x00, 0xde, 0xff, 0xff, 0xff,
  0x04, 0x00, 0x00, 0x00, 0x10, 0x00, 0x00, 0x00, 0x31, 0x2e, 0x35, 0x2e,
  0x30, 0x00, 0x00, 0x00, 0x00, 0x00, 0x00, 0x00, 0x00, 0x00, 0x00, 0x00,
  0xe0, 0xde, 0xff, 0xff, 0x00, 0x00, 0x06, 0x00, 0x08, 0x00, 0x04, 0x00,
  0x06, 0x00, 0x00, 0x00, 0x04, 0x00, 0x00, 0x00, 0x40, 0x1f, 0x00, 0x00,
  0xee, 0xdf, 0x23, 0xbe, 0xe7, 0x0a, 0x1c, 0xbe, 0x2c, 0x04, 0xf9, 0xbd,
  0x66, 0x0a, 0x60, 0xbe, 0x10, 0x7b, 0x8b, 0x3d, 0xc8, 0xfc, 0x0e, 0x3d,
  0xe6, 0x50, 0x7e, 0x3e, 0x10, 0xc0, 0xe7, 0x3c, 0x10, 0xa6, 0xd8, 0x3d,
  0xc8, 0x3a, 0x7e, 0x3d, 0xec, 0xfb, 0x8e, 0x3d, 0xf0, 0xe1, 0x63, 0x3e,
  0x6e, 0x66, 0x3d, 0x3e, 0x62, 0x5a, 0x57, 0x3e, 0xa0, 0xd7, 0x56, 0x3e,
  0x90, 0x81, 0x01, 0x3d, 0x78, 0x93, 0xff, 0x3d, 0x66, 0x3c, 0x2d, 0x3e,
  0x28, 0xa0, 0x08, 0x3e, 0x80, 0x52, 0x30, 0xbb, 0xd1, 0xf6, 0x52, 0xbe,
  0xda, 0x38, 0xa6, 0xbd, 0xb0, 0x81, 0x2a, 0x3e, 0x05, 0x90, 0x7c, 0xbe,
  0xb8, 0x0e, 0x93, 0xbd, 0x04, 0x91, 0xe2, 0x3d, 0x54, 0xd9, 0x18, 0xbd,
  0xf2, 0x63, 0x5d, 0xbe, 0x4c, 0x0a, 0xb2, 0xbd, 0x9a, 0xeb, 0xb7, 0xbd,
  0x26, 0x8e, 0x30, 0xbe, 0x50, 0x2b, 0x78, 0x3d, 0xdc, 0x8d, 0x33, 0x3e,
  0x40, 0xb7, 0xfc, 0x3d, 0x03, 0x74, 0x57, 0xbe, 0x90, 0x4a, 0x4a, 0xbd,
  0x11, 0xd7, 0x26, 0xbe, 0x6a, 0xe2, 0x17, 0x3e, 0x04, 0x7b, 0x77, 0x3e,
  0xb8, 0xd5, 0x55, 0xbd, 0x06, 0x2a, 0x7d, 0x3e, 0x74, 0xdd, 0x27, 0xbd,
  0xe0, 0xe1, 0x58, 0x3e, 0xba, 0xad, 0x2b, 0xbe, 0xb0, 0x36, 0xc4, 0x3c,
  0x90, 0x78, 0xdc, 0x3d, 0x8c, 0xfe, 0x1c, 0x3e, 0x18, 0xef, 0x68, 0x3e,
  0xf8, 0xce, 0x58, 0x3e, 0x2f, 0x39, 0x61, 0xbe, 0x3e, 0xec, 0xa6, 0xbd,
  0x2c, 0xed, 0xbc, 0xbd, 0xf8, 0x1a, 0x82, 0xbe, 0x9c, 0xfb, 0xa9, 0x3d,
  0x9c, 0x5b, 0x44, 0xbe, 0x80, 0x25, 0x06, 0xbc, 0xb4, 0x29, 0x59, 0x3e,
  0xd2, 0x42, 0x95, 0xbd, 0x44, 0x1b, 0xf4, 0xbd, 0x18, 0x11, 0xc7, 0xbc,
  0x9c, 0x52, 0xcc, 0xbd, 0x00, 0x13, 0x4a, 0xbe, 0xb0, 0xc0, 0x08, 0x3e,
  0x93, 0x26, 0x23, 0xbe, 0x2c, 0x75, 0x5a, 0xbd, 0x68, 0xe0, 0xb0, 0xbd,
  0x5d, 0xb0, 0x72, 0xbe, 0xca, 0xd5, 0x31, 0x3e, 0x8a, 0xc6, 0x7a, 0x3e,
  0xf4, 0x86, 0xe1, 0x3d, 0x70, 0x5e, 0xe2, 0x3c, 0x80, 0xef, 0x82, 0x3b,
  0xb0, 0x40, 0xef, 0x3d, 0x91, 0xa9, 0x82, 0x3e, 0xc9, 0x07, 0x70, 0xbe,
  0x40, 0x55, 0xd6, 0xbb, 0x48, 0x8c, 0x0e, 0x3e, 0x34, 0x08, 0xd8, 0xbd,
  0x57, 0x6b, 0x6d, 0xbe, 0xd9, 0x12, 0x5b, 0xbe, 0x74, 0x0f, 0x24, 0xbe,
  0x0c, 0x43, 0xf9, 0x3d, 0xfb, 0x88, 0x00, 0xbe, 0x20, 0xa5, 0x9d, 0x3d,
  0xd7, 0x22, 0x6e, 0xbe, 0x70, 0x92, 0x7c, 0xbc, 0x8c, 0xc1, 0xb9, 0x3d,
  0x72, 0x88, 0x0f, 0xbe, 0xfa, 0xcc, 0x92, 0xbd, 0x1d, 0x0c, 0x3f, 0xbe,
  0xde, 0xd8, 0x2d, 0x3e, 0xbe, 0x42, 0x79, 0xbe, 0x42, 0xcb, 0x4d, 0xbe,
  0xd0, 0xcd, 0x61, 0x3d, 0x20, 0x47, 0xdc, 0x3d, 0x80, 0xc7, 0x63, 0xbd,
  0x7e, 0x07, 0xb9, 0xbd, 0x8a, 0x2e, 0x4c, 0x3e, 0xf2, 0x94, 0x37, 0x3e,
  0xc0, 0xa1, 0x98, 0x3c, 0xc0, 0x58, 0x7b, 0x3c, 0x82, 0xde, 0x3d, 0x3e,
  0x80, 0x4e, 0xda, 0x3c, 0x62, 0x8d, 0x5c, 0x3e, 0xfe, 0xff, 0x23, 0x3e,
  0xdc, 0x68, 0x5a, 0x3e, 0xea, 0x08, 0x27, 0xbe, 0x00, 0xc9, 0x65, 0xbd,
  0x86, 0xb8, 0x51, 0x3e, 0x88, 0x0c, 0x76, 0x3d, 0xbe, 0x66, 0x38, 0xbe,
  0x85, 0x3f, 0x54, 0xbe, 0x48, 0x6e, 0x62, 0x3e, 0x74, 0x23, 0x31, 0xbe,
  0x70, 0x5f, 0xa2, 0x3c, 0x6c, 0x41, 0xe0, 0x3d, 0x30, 0xc0, 0xb8, 0x3d,
  0x07, 0x2e, 0x2a, 0xbe, 0x68, 0x89, 0xe9, 0x3d, 0x60, 0x8e, 0x61, 0x3e,
  0x38, 0xcd, 0x0d, 0x3d, 0x94, 0xbc, 0x6a, 0x3e, 0x98, 0xce, 0xba, 0x3d,
  0x00, 0x2c, 0x46, 0x3d, 0x04, 0x51, 0xff, 0xbd, 0x40, 0x7f, 0x89, 0xbd,
  0xca, 0xe8, 0x23, 0x3e, 0x20, 0xd2, 0x85, 0x3d, 0x40, 0xa4, 0x23, 0x3c,
  0xfe, 0xa5, 0x31, 0xbe, 0x8e, 0x91, 0x1c, 0x3e, 0x90, 0x77, 0x7b, 0x3d,
  0xd8, 0xee, 0x58, 0xbd, 0xb4, 0xe8, 0x2d, 0xbe, 0x00, 0x4c, 0x6e, 0xbd,
  0x30, 0xac, 0xf1, 0x3c, 0x40, 0x6a, 0x2e, 0xbe, 0x80, 0x1a, 0xc4, 0xbc,
  0x9a, 0x31, 0xb0, 0xbd, 0xa1, 0x7b, 0x44, 0xbe, 0x9c, 0x93, 0xbb, 0x3d,
  0xec, 0x1e, 0xa1, 0x3d, 0x8c, 0x96, 0xac, 0x3d, 0x22, 0x4b, 0x1c, 0x3e,
  0x2e, 0xe6, 0x72, 0x3e, 0xea, 0xcc, 0x22, 0xbe, 0x6b, 0x5d, 0x0a, 0xbe,
  0xd3, 0xc2, 0x1d, 0xbe, 0x18, 0xbe, 0xcf, 0x3d, 0x38, 0x44, 0xb7, 0xbd,
  0xf8, 0x7b, 0x54, 0x3e, 0xcf, 0xa5, 0x82, 0xbe, 0x86, 0x0d, 0x92, 0xbd,
  0x3c, 0xb3, 0x9b, 0x3d, 0x80, 0xac, 0xb0, 0x3d, 0xea, 0x4f, 0x6b, 0x3e,
  0x2d, 0x67, 0x4a, 0xbe, 0x12, 0xa0, 0xf3, 0xbd, 0xc6, 0x04, 0xa0, 0xbd,
  0xc6, 0x9c, 0xc4, 0xbd, 0x50, 0x4b, 0x07, 0xbd, 0x92, 0xf3, 0x4d, 0x3e,
  0x64, 0xd1, 0xb8, 0x3d, 0x08, 0xfe, 0x61, 0x3e, 0x5c, 0x40, 0x1b, 0xbd,
  0x7e, 0x4f, 0xef, 0xbd, 0x8e, 0x07, 0x7f, 0x3e, 0xa4, 0x10, 0x07, 0xbe,
  0x88, 0x1b, 0xd8, 0x3d, 0xea, 0xb5, 0x53, 0xbe, 0xa8, 0x1a, 0x82, 0xbe,
  0x00, 0x01, 0xb0, 0x3a, 0x3a, 0x3d, 0x0f, 0x3e, 0xd8, 0x58, 0x6e, 0xbd,
  0xc4, 0xa6, 0x3d, 0xbe, 0x06, 0x9b, 0x65, 0x3e, 0x34, 0x71, 0x43, 0x3e,
  0xe5, 0xd1, 0x43, 0xbe, 0xa4, 0x3d, 0x76, 0xbd, 0xf0, 0x41, 0x23, 0x3d,
  0x63, 0xe4, 0x37, 0xbe, 0x52, 0x70, 0x31, 0x3e, 0x83, 0xfa, 0x71, 0xbe,
  0xd0, 0xd0, 0x21, 0x3e, 0xf3, 0x6f, 0x17, 0xbe, 0x6e, 0xac, 0x7a, 0x3e,
  0x18, 0xa4, 0xb3, 0x3d, 0xf9, 0x25, 0x35, 0xbe, 0x10, 0xaa, 0x42, 0xbd,
  0x94, 0xd3, 0x0b, 0xbe, 0x04, 0xa9, 0x4e, 0xbd, 0x7b, 0x19, 0x06, 0xbe,
  0x90, 0xa8, 0xc9, 0x3c, 0xb8, 0xdc, 0xb8, 0x3d, 0xdb, 0x93, 0x45, 0xbe,
  0x00, 0xb2, 0xab, 0xbd, 0xf8, 0xf9, 0x13, 0x3d, 0xc9, 0xbd, 0x80, 0x3e,
  0x00, 0x30, 0xab, 0x3d, 0xe2, 0xfc, 0x0c, 0x3e, 0xc4, 0x2f, 0xb8, 0x3d,
  0x2e, 0x0c, 0xf1, 0xbd, 0x9c, 0xac, 0x55, 0x3e, 0x7c, 0x3e, 0xa2, 0x3d,
  0xc0, 0x22, 0xbc, 0x3c, 0xb0, 0x6c, 0x50, 0x3e, 0xa8, 0x6d, 0x28, 0x3d,
  0x52, 0xfd, 0x02, 0xbe, 0xed, 0x6a, 0x53, 0xbe, 0xe0, 0x7b, 0x39, 0xbe,
  0xc4, 0xd6, 0x71, 0xbe, 0x9f, 0xd9, 0x18, 0xbe, 0xe6, 0xbe, 0xe5, 0xbd,
  0x28, 0x6c, 0x13, 0x3d, 0xf8, 0xc1, 0x6e, 0xbe, 0x1e, 0x4f, 0x9d, 0xbd,
  0x00, 0x0d, 0x27, 0x3e, 0xec, 0x0b, 0x57, 0xbe, 0x02, 0x8c, 0xdf, 0xbd,
  0xbd, 0x17, 0x7a, 0xbe, 0xf2, 0xe7, 0x7a, 0xbe, 0x37, 0x1f, 0x36, 0xbe,
  0x20, 0x0b, 0x51, 0x3e, 0x84, 0xce, 0x91, 0x3d, 0x5f, 0x87, 0x5a, 0xbe,
  0x7a, 0xcb, 0x62, 0x3e, 0x6c, 0x76, 0x50, 0xbd, 0xb0, 0xb1, 0xe1, 0x3d,
  0x7c, 0x73, 0x14, 0x3e, 0x80, 0xda, 0x1d, 0x3e, 0x20, 0x01, 0x6a, 0x3d,
  0xfc, 0xb4, 0xa6, 0xbd, 0xd0, 0xf2, 0xd9, 0xbd, 0x50, 0x67, 0x6e, 0x3e,
  0xfa, 0x34, 0x1a, 0x3e, 0x18, 0x4e, 0xed, 0x3d, 0x2c, 0xd7, 0xed, 0x3d,
  0x53, 0x04, 0x25, 0xbe, 0x3a, 0x67, 0x14, 0x3e, 0xa0, 0xb0, 0xcc, 0xbd,
  0xfc, 0xce, 0x0b, 0x3e, 0xf4, 0x40, 0x41, 0x3e, 0x94, 0xc1, 0x5a, 0xbe,
  0xd6, 0x04, 0xed, 0xbd, 0xd0, 0xe4, 0x32, 0x3d, 0xbb, 0xc6, 0x66, 0xbe,
  0xad, 0xe0, 0x69, 0xbe, 0x00, 0xca, 0x21, 0xbb, 0x70, 0xce, 0x6a, 0x3d,
  0x68, 0x6a, 0x19, 0xbe, 0xcb, 0x07, 0x4f, 0xbe, 0x0c, 0x8c, 0x41, 0x3e,
  0x0c, 0xab, 0xce, 0xbd, 0xf0, 0x90, 0x0d, 0x3e, 0x60, 0x7e, 0xae, 0x3d,
  0xe0, 0xdd, 0x20, 0x3d, 0x42, 0xa3, 0xf1, 0xbd, 0x48, 0xb5, 0x9f, 0xbd,
  0xea, 0x8c, 0x08, 0x3e, 0x2c, 0x65, 0x4c, 0xbd, 0x20, 0xa4, 0x9d, 0x3d,
  0x1e, 0x6b, 0x7d, 0x3e, 0x72, 0xcd, 0xa6, 0xbd, 0xdc, 0xc6, 0x25, 0xbd,
  0x6c, 0x23, 0x54, 0x3e, 0xad, 0x53, 0x77, 0xbe, 0x56, 0xb0, 0x50, 0xbe,
  0xa4, 0x69, 0x94, 0x3d, 0xc4, 0xd3, 0xf0, 0xbd, 0x00, 0x1e, 0x17, 0x3e,
  0x30, 0x48, 0x5d, 0x3e, 0x74, 0xb1, 0x08, 0x3e, 0x49, 0xcf, 0x29, 0xbe,
  0x20, 0x06, 0x06, 0x3d, 0xc9, 0x70, 0x31, 0xbe, 0x0e, 0x0c, 0xd4, 0xbd,
  0x26, 0x59, 0x8c, 0xbd, 0x68, 0x61, 0xde, 0x3d, 0x9a, 0x3b, 0x41, 0x3e,
  0x66, 0x4f, 0x12, 0x3e, 0xa8, 0x53, 0x76, 0xbe, 0x98, 0xb9, 0x4b, 0xbd,
  0x8a, 0xdd, 0x74, 0x3e, 0xf9, 0x8a, 0x80, 0x3e, 0x56, 0xaa, 0x3d, 0x3e,
  0x00, 0xef, 0xf1, 0x3a, 0xac, 0x2b, 0xbb, 0x3d, 0xaf, 0x61, 0x45, 0xbe,
  0xc4, 0x60, 0x55, 0xbe, 0x14, 0xbe, 0xea, 0x3d, 0x00, 0x96, 0xc3, 0x3d,
  0xa4, 0x31, 0x58, 0xbd, 0x54, 0xf8, 0xc3, 0x3d, 0x57, 0x49, 0x47, 0xbe,
  0x00, 0x31, 0xf7, 0x3b, 0xca, 0x1b, 0xe6, 0xbd, 0xc6, 0x1d, 0xdb, 0xbd,
  0xba, 0x79, 0x73, 0x3e, 0x78, 0x70, 0xdb, 0x3d, 0x8e, 0x81, 0x10, 0x3e,
  0x2c, 0x41, 0xf0, 0x3d, 0x80, 0x4c, 0x31, 0xbb, 0x36, 0xec, 0x51, 0xbe,
  0x82, 0x9c, 0xe9, 0xbd, 0x46, 0x41, 0x53, 0xbe, 0x84, 0xbc, 0x19, 0xbe,
  0x92, 0x62, 0x7b, 0x3e, 0x6d, 0xb2, 0x7c, 0xbe, 0xd2, 0x25, 0x7b, 0x3e,
  0x86, 0x03, 0x0b, 0x3e, 0xa0, 0x48, 0xc3, 0x3d, 0x54, 0xf0, 0x2b, 0xbd,
  0x68, 0x43, 0x72, 0x3e, 0xe0, 0x5d, 0x82, 0xbe, 0x2e, 0x0a, 0x0d, 0x3e,
  0x68, 0xdb, 0x66, 0xbd, 0x74, 0xfa, 0x99, 0xbd, 0xe4, 0x57, 0x92, 0x3d,
  0xd6, 0x2a, 0x61, 0xbe, 0x56, 0xf9, 0x44, 0x3e, 0xc4, 0x85, 0x23, 0x3e,
  0xac, 0xec, 0x31, 0x3e, 0xf4, 0x03, 0x6b, 0xbd, 0x5a, 0xc8, 0x7a, 0x3e,
  0x4e, 0xa8, 0x88, 0xbd, 0x4c, 0xee, 0x5a, 0x3e, 0x1c, 0x10, 0x93, 0x3d,
  0x7a, 0x32, 0x6e, 0xbe, 0xdf, 0x0c, 0x05, 0xbe, 0x84, 0x99, 0x5f, 0xbe,
  0x14, 0xfc, 0x02, 0x3e, 0x6c, 0x9e, 0x45, 0x3e, 0x40, 0xe5, 0x54, 0x3e,
  0x86, 0xbd, 0x49, 0xbe, 0x22, 0x94, 0x32, 0xbe, 0x16, 0x51, 0x11, 0xbe,
  0x40, 0xf0, 0xc7, 0x3b, 0x1c, 0xe1, 0x80, 0xbd, 0x80, 0xdc, 0x75, 0xbb,
  0xf4, 0xd2, 0xdf, 0x3d, 0x38, 0x8d, 0x05, 0x3d, 0xb4, 0xb6, 0x56, 0x3e,
  0x48, 0xf6, 0x04, 0x3e, 0x7e, 0x06, 0x32, 0xbe, 0x3a, 0x35, 0xba, 0xbd,
  0x00, 0xfa, 0xd9, 0xba, 0xb8, 0x3c, 0xe4, 0xbc, 0xa8, 0x10, 0x0c, 0xbd,
  0xc2, 0x85, 0x5e, 0xbe, 0xea, 0xbc, 0x3b, 0xbe, 0xdc, 0x76, 0x2a, 0x3e,
  0xa2, 0x7c, 0x2a, 0x3e, 0x44, 0x93, 0x5e, 0x3e, 0xfb, 0x8c, 0x32, 0xbe,
  0x60, 0x4d, 0x5c, 0x3c, 0x58, 0x01, 0x1a, 0x3d, 0x48, 0xdb, 0x69, 0x3e,
  0x40, 0xdd, 0xf3, 0x3c, 0xee, 0xae, 0x3d, 0x3e, 0x3c, 0xce, 0x9a, 0x3d,
  0x00, 0x2a, 0xbc, 0x3d, 0x33, 0x2b, 0x0e, 0xbe, 0xec, 0xd8, 0x41, 0x3e,
  0xe8, 0x67, 0x3f, 0xbe, 0x36, 0xa9, 0xd6, 0xbd, 0x5a, 0x28, 0x59, 0x3e,
  0x88, 0x26, 0x62, 0x3d, 0x7a, 0xb4, 0x7d, 0xbe, 0xa0, 0x36, 0xe4, 0x3d,
  0xdf, 0x91, 0x7b, 0xbe, 0xd9, 0xef, 0x30, 0xbe, 0xe4, 0x1b, 0x59, 0x3e,
  0x50, 0x06, 0xf8, 0x3c, 0x48, 0x13, 0x86, 0xbc, 0x94, 0x86, 0x26, 0xbd,
  0x66, 0xf7, 0x5a, 0xbe, 0x80, 0x08, 0xa4, 0xbb, 0xa8, 0x5b, 0x06, 0xbe,
  0xb6, 0x26, 0x30, 0xbe, 0xd6, 0x2b, 0x69, 0x3e, 0xc4, 0xad, 0x76, 0x3e,
  0xec, 0x09, 0x30, 0x3e, 0x5c, 0x0c, 0xaa, 0x3d, 0x10, 0x38, 0x3c, 0xbc,
  0x6b, 0x75, 0x39, 0xbe, 0x80, 0xb8, 0x6b, 0x3d, 0x54, 0x5b, 0x9e, 0x3d,
  0x38, 0x08, 0x30, 0xbd, 0x7c, 0xed, 0x64, 0xbe, 0x5a, 0x7e, 0x11, 0xbe,
  0x88, 0xe4, 0x14, 0xbe, 0x3e, 0xf9, 0x3d, 0xbe, 0x28, 0x14, 0xe4, 0x3d,
  0x68, 0x80, 0xd3, 0xbd, 0xa8, 0x13, 0x02, 0xbd, 0x12, 0x90, 0x98, 0xbd,
  0x9e, 0x32, 0xf8, 0xbd, 0x64, 0xd1, 0x07, 0xbd, 0xed, 0xd8, 0x10, 0xbe,
  0x1c, 0xcd, 0xfe, 0x3d, 0xd8, 0x03, 0xcf, 0xbc, 0x2a, 0xf2, 0x45, 0x3e,
  0x80, 0x73, 0xb3, 0x3c, 0x64, 0x06, 0xf6, 0xbd, 0xd8, 0x35, 0x5a, 0x3e,
  0x78, 0xd7, 0x18, 0x3d, 0x74, 0x3f, 0x82, 0xbd, 0x1a, 0xb4, 0x3a, 0xbe,
  0x70, 0x53, 0x27, 0x3e, 0x0a, 0x85, 0x92, 0xbd, 0x40, 0x6d, 0x2d, 0x3c,
  0x06, 0xf2, 0x30, 0x3e, 0x58, 0xaf, 0x4f, 0x3d, 0xd0, 0xc8, 0x19, 0xbd,
  0x7f, 0x24, 0x33, 0xbe, 0x3c, 0x11, 0x53, 0x3e, 0xc1, 0x4f, 0x26, 0xbe,
  0xbc, 0xd0, 0x5b, 0x3e, 0x00, 0xc8, 0x21, 0x3b, 0x18, 0xda, 0xb3, 0xbd,
  0x74, 0xca, 0x3f, 0x3e, 0xf8, 0x16, 0xc4, 0x3d, 0x22, 0x83, 0x21, 0xbe,
  0x90, 0x35, 0xd7, 0xbc, 0x48, 0xbc, 0x08, 0xbd, 0x90, 0x31, 0xb5, 0xbd,
  0xc8, 0x3a, 0xac, 0xbd, 0x68, 0x74, 0x8f, 0x3d, 0x62, 0x1f, 0x5e, 0x3e,
  0xde, 0x68, 0x93, 0xbd, 0xbc, 0x28, 0x59, 0xbd, 0x0a, 0x0d, 0x72, 0x3e,
  0xdc, 0x6d, 0xb0, 0x3d, 0xdf, 0xbf, 0x06, 0xbe, 0xc8, 0xf1, 0x60, 0x3d,
  0xa2, 0xd1, 0x9c, 0xbd, 0x7c, 0xee, 0x4d, 0xbe, 0x6c, 0xe3, 0xa4, 0xbd,
  0x78, 0x60, 0x2d, 0x3e, 0xf0, 0x82, 0x7e, 0x3d, 0x66, 0x72, 0xdb, 0xbd,
  0xd0, 0x17, 0x78, 0x3d, 0x94, 0x9f, 0x34, 0xbe, 0x5c, 0x33, 0x9c, 0xbd,
  0xba, 0x49, 0x2b, 0x3e, 0xa6, 0x71, 0x69, 0x3e, 0x7a, 0x18, 0x79, 0x3e,
  0xd2, 0x03, 0x0d, 0xbe, 0x13, 0x27, 0x23, 0xbe, 0x54, 0x60, 0x80, 0xbd,
  0x84, 0xa9, 0x4d, 0x3e, 0x1a, 0x27, 0xd4, 0xbd, 0xb0, 0x34, 0x0b, 0x3d,
  0x34, 0xa2, 0x2b, 0x3e, 0x6d, 0x95, 0x33, 0xbe, 0x26, 0xfb, 0x03, 0xbe,
  0x74, 0xdb, 0xbd, 0xbd, 0xa8, 0x45, 0x69, 0x3e, 0xb6, 0xb4, 0x54, 0xbe,
  0xf0, 0xc3, 0x75, 0x3e, 0x28, 0x25, 0x6d, 0x3e, 0x90, 0x2b, 0x55, 0xbe,
  0x08, 0x1d, 0x71, 0xbd, 0xc3, 0x60, 0x1a, 0xbe, 0xea, 0xb9, 0x24, 0x3e,
  0xaa, 0xd2, 0x8b, 0xbd, 0x20, 0xb9, 0x76, 0xbd, 0x64, 0xe9, 0x0e, 0x3e,
  0x44, 0xfc, 0x49, 0x3e, 0xd6, 0x0d, 0x80, 0xbd, 0x10, 0xfb, 0x6b, 0xbc,
  0xd0, 0x92, 0xbe, 0xbc, 0x64, 0x5d, 0xec, 0x3d, 0xd0, 0x2b, 0x62, 0x3e,
  0xd8, 0x05, 0x73, 0xbe, 0xc0, 0x51, 0x99, 0xbb, 0x06, 0xb0, 0x34, 0x3e,
  0x10, 0x84, 0xf4, 0xbc, 0xc8, 0xa5, 0xcd, 0x3d, 0xd6, 0x5f, 0x28, 0x3e,
  0xb2, 0xb5, 0x6b, 0xbe, 0xf0, 0x70, 0x92, 0xbc, 0x54, 0xa6, 0x36, 0xbd,
  0x48, 0x84, 0xb6, 0x3d, 0x66, 0xd0, 0x7a, 0xbe, 0x90, 0x5d, 0xf1, 0x3c,
  0xb4, 0x4a, 0xa6, 0xbd, 0x40, 0x5f, 0xd0, 0xbb, 0x81, 0xbb, 0x26, 0xbe,
  0xea, 0xc6, 0x77, 0xbe, 0x7c, 0x07, 0xa1, 0x3d, 0x58, 0x3a, 0xe4, 0x3d,
  0x36, 0x01, 0xf2, 0xbd, 0x68, 0xf0, 0xdd, 0xbc, 0x04, 0x3f, 0xcb, 0xbd,
  0x90, 0xee, 0x60, 0x3d, 0xf0, 0xf1, 0xf8, 0x3c, 0x85, 0x2b, 0x84, 0xbe,
  0x8a, 0x69, 0x29, 0xbe, 0x95, 0x7d, 0x81, 0xbe, 0xe8, 0xd8, 0x6e, 0x3d,
  0x28, 0xdb, 0x2f, 0x3d, 0x16, 0x56, 0x37, 0xbe, 0x64, 0x8a, 0x19, 0xbe,
  0x9a, 0xc6, 0x12, 0x3e, 0xd0, 0x69, 0x7a, 0xbd, 0xa0, 0xf2, 0xe2, 0x3c,
  0x3e, 0x73, 0x0c, 0xbe, 0xe6, 0xd3, 0x1d, 0x3e, 0xb8, 0xb6, 0x2f, 0xbe,
  0x0c, 0x69, 0x6c, 0xbd, 0x80, 0x59, 0xa7, 0xbb, 0x2a, 0x05, 0x2d, 0xbe,
  0x64, 0x0b, 0x47, 0x3e, 0x54, 0xb2, 0x65, 0xbe, 0x32, 0x4c, 0x14, 0x3e,
  0xa8, 0x0c, 0xe9, 0x3d, 0x62, 0xcf, 0x63, 0x3e, 0xa2, 0x52, 0x15, 0x3e,
  0x0a, 0x57, 0x30, 0x3e, 0x1c, 0x08, 0xf8, 0xbd, 0xe2, 0x67, 0x79, 0x3e,
  0xb4, 0x08, 0x2e, 0xbe, 0x12, 0xcc, 0x47, 0xbe, 0xa8, 0xe3, 0x8f, 0xbd,
  0xdc, 0x57, 0x4b, 0xbd, 0x3c, 0x16, 0xd6, 0x3d, 0x94, 0x7a, 0x37, 0xbd,
  0xc8, 0x7b, 0x15, 0x3d, 0x30, 0x43, 0xaa, 0x3c, 0xb0, 0x36, 0x6d, 0x3d,
  0x90, 0xf7, 0x4b, 0x3e, 0xa0, 0xe3, 0xe3, 0x3d, 0x84, 0xee, 0x35, 0x3e,
  0xf0, 0x92, 0x02, 0xbd, 0x40, 0xef, 0xbe, 0x3d, 0xc0, 0x3b, 0x94, 0xbc,
  0xd8, 0x0d, 0xc7, 0x3d, 0x60, 0x1a, 0x74, 0x3c, 0x62, 0x1c, 0x47, 0x3e,
  0x0e, 0x1c, 0x3e, 0xbe, 0xa4, 0x85, 0xe6, 0x3d, 0x68, 0xd1, 0xa3, 0x3d,
  0xb3, 0x11, 0x06, 0xbe, 0xcb, 0x5d, 0x81, 0xbe, 0x58, 0xba, 0x28, 0xbd,
  0x31, 0xa0, 0x0d, 0xbe, 0xdd, 0xc9, 0x6b, 0xbe, 0xce, 0x83, 0xe6, 0xbd,
  0x7a, 0x33, 0x4f, 0xbe, 0x44, 0xa5, 0x45, 0x3e, 0x88, 0x40, 0xab, 0x3d,
  0x1e, 0x96, 0x36, 0xbe, 0x29, 0xc0, 0x3f, 0xbe, 0x63, 0x99, 0x7a, 0xbe,
  0xb2, 0x93, 0xe1, 0xbd, 0xba, 0x47, 0xf1, 0xbd, 0xbc, 0x38, 0x19, 0xbd,
  0x2e, 0xd2, 0x0c, 0x3e, 0x00, 0x9d, 0x03, 0x3e, 0xc0, 0x50, 0xab, 0x3b,
  0x86, 0x74, 0x85, 0xbd, 0x08, 0xfb, 0x1a, 0x3d, 0x26, 0x8e, 0xf1, 0xbd,
  0x4c, 0x0a, 0xe7, 0xbd, 0x2a, 0x5a, 0x55, 0x3e, 0x4c, 0xfb, 0xc9, 0x3d,
  0x24, 0xec, 0x4c, 0xbe, 0xc8, 0xf4, 0x1f, 0x3e, 0x76, 0x9b, 0x3b, 0xbe,
  0xc8, 0xff, 0x40, 0xbd, 0xd0, 0x64, 0x97, 0x3d, 0xb6, 0x21, 0xdc, 0xbd,
  0x0d, 0x10, 0x65, 0xbe, 0x58, 0x00, 0x9d, 0x3d, 0x80, 0xd7, 0x16, 0x3c,
  0x00, 0x66, 0xd3, 0x3d, 0x71, 0xf3, 0x59, 0xbe, 0xa5, 0x81, 0x7d, 0xbe,
  0xee, 0x19, 0x5a, 0x3e, 0x90, 0x15, 0x56, 0xbc, 0xb2, 0xed, 0xe5, 0xbd,
  0xa0, 0x84, 0x0b, 0xbc, 0xfa, 0xa5, 0x2d, 0x3e, 0xa6, 0x26, 0x53, 0xbe,
  0x66, 0xa3, 0x5c, 0x3e, 0x93, 0xb4, 0x1d, 0xbe, 0xde, 0xfe, 0xc6, 0xbd,
  0x00, 0x76, 0xd1, 0x3c, 0x02, 0x3e, 0xd2, 0xbd, 0x7d, 0x20, 0x0f, 0xbe,
  0x08, 0xed, 0x82, 0xbe, 0x78, 0x6f, 0x33, 0x3e, 0xa0, 0xfc, 0x46, 0x3d,
  0xa8, 0x12, 0x77, 0x3d, 0x38, 0x41, 0xdd, 0xbc, 0x88, 0xac, 0x1f, 0x3e,
  0x7a, 0xef, 0x5b, 0x3e, 0xe8, 0xa0, 0xea, 0xbd, 0x6c, 0xf6, 0xca, 0x3d,
  0xb1, 0x0e, 0x84, 0x3e, 0x4e, 0x58, 0xb8, 0xbd, 0x12, 0xb0, 0x9d, 0xbd,
  0x40, 0xeb, 0x02, 0xbc, 0x3a, 0x85, 0x92, 0xbd, 0xc9, 0xa3, 0x0c, 0xbe,
  0xd8, 0x2c, 0x75, 0x3e, 0x65, 0xdd, 0x17, 0xbe, 0xce, 0x0a, 0x70, 0xbe,
  0x40, 0x6f, 0xbc, 0xbb, 0xfa, 0xc5, 0x35, 0x3e, 0x42, 0xae, 0x5d, 0x3e,
  0x70, 0x23, 0x2c, 0x3d, 0xd0, 0xca, 0x48, 0x3e, 0xb4, 0x6c, 0x12, 0x3e,
  0x3e, 0x88, 0xc3, 0xbd, 0x36, 0xd7, 0x1f, 0x3e, 0x76, 0xd3, 0x80, 0xbe,
  0x88, 0xb2, 0x28, 0x3d, 0x4f, 0x85, 0x4f, 0xbe, 0xa0, 0x1b, 0xcf, 0x3d,
  0x3e, 0x36, 0xe4, 0xbd, 0xa7, 0xd4, 0x33, 0xbe, 0x08, 0xdd, 0xbf, 0xbc,
  0xd8, 0x49, 0x92, 0x3d, 0x80, 0x16, 0x13, 0x3e, 0x1a, 0x85, 0x57, 0x3e,
  0x2c, 0xe0, 0xdc, 0xbd, 0xe0, 0x6d, 0x5a, 0xbd, 0xbe, 0x02, 0x92, 0xbd,
  0xec, 0x2a, 0xc6, 0x3d, 0xaa, 0xbc, 0x97, 0xbd, 0x20, 0x30, 0x7c, 0x3d,
  0x4a, 0x0f, 0x2b, 0x3e, 0xc0, 0x2f, 0x4f, 0xbc, 0x18, 0x4f, 0x60, 0x3e,
  0x40, 0xc3, 0x52, 0x3d, 0xa0, 0xbf, 0x55, 0x3c, 0x3c, 0xa0, 0xce, 0xbd,
  0x52, 0x26, 0xea, 0xbd, 0x6a, 0x47, 0x97, 0xbd, 0x98, 0xe1, 0x56, 0x3d,
  0x40, 0xc7, 0xd4, 0x3d, 0xf0, 0x34, 0x48, 0x3d, 0xbc, 0xb7, 0xce, 0xbd,
  0xea, 0x6c, 0x97, 0xbd, 0x2e, 0xb9, 0x8f, 0xbd, 0x39, 0x21, 0x80, 0xbe,
  0x07, 0x85, 0x5d, 0xbe, 0x8c, 0x6f, 0xe0, 0xbd, 0x32, 0x9f, 0x4c, 0xbe,
  0x74, 0x78, 0xc1, 0xbd, 0x88, 0x1d, 0x02, 0xbd, 0x18, 0xdb, 0xe1, 0xbd,
  0xd8, 0x21, 0xe2, 0x3d, 0xac, 0x69, 0x67, 0x3e, 0xe0, 0xdb, 0x0d, 0x3c,
  0xa0, 0x5f, 0x1d, 0x3d, 0xdc, 0x50, 0x33, 0xbd, 0x60, 0x29, 0xa6, 0xbc,
  0x90, 0xc0, 0xb0, 0x3c, 0x52, 0x29, 0x1c, 0xbe, 0x18, 0x00, 0x7c, 0x3d,
  0x32, 0x79, 0x2a, 0xbe, 0xf8, 0xce, 0x2f, 0xbd, 0x6c, 0x72, 0x17, 0x3e,
  0x68, 0x8a, 0xd9, 0xbc, 0xde, 0xec, 0x26, 0xbe, 0xea, 0x15, 0x6e, 0x3e,
  0x92, 0x97, 0xe8, 0xbd, 0x0c, 0x00, 0x14, 0xbd, 0x60, 0x0b, 0xe2, 0xbd,
  0xee, 0xbe, 0x80, 0xbd, 0x32, 0x79, 0xba, 0xbd, 0xa0, 0x33, 0xb9, 0x3c,
  0xd6, 0xe5, 0x3a, 0x3e, 0x70, 0xc4, 0x53, 0xbe, 0xbf, 0x59, 0x1b, 0xbe,
  0xdc, 0x41, 0x7c, 0xbd, 0xe3, 0x02, 0x02, 0xbe, 0xa8, 0x8e, 0xf5, 0xbc,
  0x94, 0x2a, 0x5f, 0xbd, 0xa8, 0x6a, 0x3e, 0xbd, 0x32, 0x0a, 0x65, 0x3e,
  0xa0, 0xf0, 0x57, 0xbc, 0x80, 0xfd, 0x9b, 0xbb, 0xce, 0x4d, 0x7f, 0x3e,
  0xc0, 0x2d, 0x28, 0x3d, 0x98, 0xbd, 0x28, 0x3e, 0x5c, 0x16, 0x14, 0x3e,
  0xd2, 0x6b, 0x2e, 0xbe, 0x57, 0x25, 0x7d, 0xbe, 0x70, 0x55, 0x05, 0x3d,
  0xf8, 0xf8, 0x48, 0x3e, 0x3c, 0xbd, 0x1c, 0xbe, 0x92, 0xb0, 0x21, 0x3e,
  0xc0, 0xce, 0x85, 0x3b, 0xd0, 0xee, 0xff, 0x3d, 0x80, 0x11, 0xb5, 0x3b,
  0x78, 0x75, 0x1e, 0x3e, 0x7d, 0x29, 0x25, 0xbe, 0xa6, 0xa0, 0x7e, 0xbe,
  0xa0, 0xee, 0x61, 0xbc, 0x34, 0x6c, 0x2c, 0xbd, 0x0e, 0xbc, 0x65, 0x3e,
  0x68, 0xc8, 0xe1, 0xbc, 0x50, 0xf1, 0x2b, 0xbe, 0x8a, 0x11, 0x34, 0x3e,
  0xc2, 0xaa, 0x97, 0xbd, 0x0e, 0xf7, 0x05, 0x3e, 0xaa, 0x8d, 0x05, 0x3e,
  0x6c, 0xbe, 0x4f, 0x3e, 0x28, 0xbe, 0xf4, 0xbd, 0x58, 0x75, 0xbf, 0xbd,
  0x20, 0xb8, 0x55, 0x3c, 0xa0, 0xcb, 0x73, 0x3e, 0x20, 0x12, 0x50, 0x3c,
  0xc6, 0x24, 0x3b, 0xbe, 0xc0, 0x29, 0x73, 0xbe, 0x80, 0x4c, 0xda, 0x3d,
  0x84, 0x28, 0x16, 0xbd, 0xf8, 0x48, 0x29, 0x3e, 0x96, 0xed, 0xbc, 0xbd,
  0x8a, 0x35, 0x5e, 0xbe, 0x32, 0xa7, 0xdb, 0xbd, 0xe0, 0x9e, 0xb0, 0x3c,
  0xe0, 0x6c, 0x43, 0x3c, 0x58, 0x80, 0x0c, 0x3d, 0xba, 0x9b, 0x0e, 0xbe,
  0x68, 0x28, 0x7d, 0xbe, 0x15, 0x20, 0x31, 0xbe, 0x78, 0xf3, 0xf3, 0x3d,
  0xcc, 0xff, 0x57, 0x3e, 0x9c, 0x7a, 0x3f, 0x3e, 0xd0, 0xfb, 0xfe, 0x3d,
  0x04, 0x78, 0x6f, 0x3e, 0xb2, 0x09, 0x47, 0xbe, 0x1a, 0xac, 0x3b, 0xbe,
  0x20, 0xd4, 0xf4, 0x3c, 0x90, 0xd2, 0x35, 0xbc, 0x14, 0xa0, 0x6e, 0x3e,
  0xb9, 0x7a, 0x62, 0xbe, 0x90, 0xfc, 0xe0, 0x3d, 0x4a, 0x82, 0x30, 0x3e,
  0x98, 0xed, 0xfc, 0x3d, 0xb5, 0xed, 0x81, 0x3e, 0x0c, 0x07, 0xba, 0x3d,
  0xb8, 0x1d, 0xde, 0xbd, 0x70, 0x05, 0x4c, 0xbd, 0x00, 0xfc, 0x8a, 0x3d,
  0x90, 0x1d, 0x7a, 0xbe, 0xbc, 0x58, 0x6d, 0xbe, 0xc0, 0x42, 0x99, 0xbc,
  0xec, 0x68, 0x0e, 0x3e, 0xee, 0x40, 0x20, 0xbe, 0x18, 0x26, 0x5a, 0xbd,
  0x1c, 0x3d, 0x7d, 0xbe, 0x3e, 0x5e, 0x0b, 0x3e, 0x86, 0x92, 0x38, 0x3e,
  0xb2, 0xb7, 0x1f, 0x3e, 0x54, 0x3f, 0xcf, 0x3d, 0x50, 0xba, 0x8f, 0x3d,
  0x28, 0xa0, 0x59, 0x3e, 0x99, 0x01, 0x44, 0xbe, 0x9e, 0x46, 0x2d, 0x3e,
  0x6c, 0xb5, 0x2f, 0x3e, 0x40, 0x7b, 0xff, 0xbb, 0x80, 0xf4, 0x6c, 0x3c,
  0x4e, 0x1d, 0x40, 0xbe, 0xaa, 0x38, 0x1c, 0x3e, 0x26, 0x9e, 0x03, 0x3e,
  0x40, 0x08, 0xca, 0xbb, 0xc8, 0x1d, 0xed, 0x3d, 0x4e, 0x52, 0x2a, 0xbe,
  0x9c, 0xab, 0x21, 0xbd, 0x16, 0xa9, 0x43, 0xbe, 0x89, 0x2d, 0x2c, 0xbe,
  0xc0, 0xdf, 0x9d, 0x3b, 0x88, 0xf5, 0x17, 0xbd, 0x4a, 0xac, 0x14, 0x3e,
  0xa8, 0xdf, 0x1b, 0xbe, 0xa4, 0x9e, 0x32, 0xbd, 0x38, 0x66, 0x41, 0xbd,
  0xa0, 0x1b, 0xf7, 0x3d, 0x30, 0xaa, 0x51, 0x3d, 0x86, 0x3e, 0xe1, 0xbd,
  0x76, 0xd6, 0x8a, 0xbd, 0x8c, 0xdb, 0x19, 0x3e, 0x6a, 0x69, 0x2a, 0xbe,
  0x3c, 0x5e, 0x33, 0xbe, 0x56, 0x09, 0x56, 0xbe, 0xe4, 0x5e, 0x03, 0xbe,
  0x4c, 0xb2, 0x6d, 0x3e, 0x28, 0x7e, 0x18, 0x3e, 0xbc, 0x26, 0xa2, 0x3d,
  0x96, 0xa1, 0x54, 0x3e, 0x90, 0xd7, 0x29, 0xbe, 0x1a, 0x1d, 0x60, 0x3e,
  0xbb, 0xa9, 0x06, 0xbe, 0x20, 0xf8, 0xf5, 0x3c, 0xf8, 0x58, 0x5b, 0x3e,
  0x72, 0xfd, 0x97, 0xbd, 0xee, 0x44, 0x1b, 0xbe, 0x58, 0xb9, 0xd5, 0x3d,
  0x00, 0x3b, 0xd7, 0xbd, 0xa6, 0xc0, 0x4c, 0x3e, 0xd6, 0x70, 0x67, 0x3e,
  0xca, 0x3d, 0x66, 0x3e, 0x88, 0x68, 0x0e, 0x3d, 0xf0, 0xbc, 0xf6, 0xbd,
  0x80, 0x32, 0x42, 0x3e, 0x66, 0x70, 0x29, 0xbe, 0x8e, 0x0f, 0x57, 0xbe,
  0xd0, 0x37, 0xf9, 0x3d, 0x00, 0xc0, 0x86, 0x3b, 0xf8, 0x11, 0xaf, 0x3d,
  0x28, 0x8b, 0x6c, 0x3e, 0xb0, 0x5d, 0xe7, 0x3c, 0xc0, 0x1c, 0x5a, 0x3e,
  0x96, 0x13, 0xee, 0xbd, 0x00, 0x1d, 0xdd, 0x3d, 0x50, 0xd7, 0x3a, 0xbe,
  0xf4, 0x99, 0x0b, 0xbe, 0x20, 0xd9, 0x6f, 0x3d, 0x40, 0x9d, 0xbb, 0x3c,
  0xa6, 0xf6, 0x82, 0xbe, 0x1e, 0xcd, 0xb3, 0xbd, 0x1f, 0x43, 0x7b, 0xbe,
  0x94, 0x25, 0x93, 0x3d, 0x91, 0x7a, 0x6f, 0xbe, 0x28, 0xa6, 0x74, 0x3e,
  0x1a, 0xd8, 0xaf, 0xbd, 0x80, 0x75, 0xc4, 0xbd, 0x28, 0x89, 0xd4, 0x3d,
  0xaf, 0x1d, 0x27, 0xbe, 0xa0, 0xa3, 0x6e, 0x3c, 0xa8, 0xa0, 0xd6, 0x3d,
  0x00, 0x88, 0x0b, 0x3c, 0x40, 0x42, 0x7d, 0x3d, 0x74, 0x2a, 0x37, 0x3e,
  0x5d, 0xc4, 0x73, 0xbe, 0x48, 0xcb, 0x5e, 0xbe, 0x48, 0x3d, 0x4a, 0x3d,
  0x40, 0x76, 0xe6, 0xbd, 0x42, 0xd5, 0x58, 0xbe, 0x4e, 0x60, 0x47, 0xbe,
  0xbe, 0xfe, 0xde, 0xbd, 0x64, 0xaf, 0x43, 0x3e, 0x78, 0x12, 0x4d, 0x3e,
  0x4a, 0xef, 0x64, 0x3e, 0xe2, 0x82, 0x55, 0xbe, 0x10, 0xa4, 0x8e, 0x3d,
  0xa0, 0x70, 0x9f, 0xbd, 0xf6, 0x17, 0x5a, 0x3e, 0x60, 0xba, 0x09, 0xbc,
  0x20, 0x82, 0xbb, 0x3c, 0xa5, 0xdb, 0x1d, 0xbe, 0x03, 0x70, 0x50, 0xbe,
  0xec, 0x70, 0x5c, 0xbd, 0x34, 0xd5, 0x02, 0xbe, 0xdc, 0x82, 0x40, 0xbe,
  0x96, 0xfe, 0x7a, 0xbe, 0x98, 0xbf, 0x49, 0x3d, 0x38, 0xac, 0x79, 0x3d,
  0xd8, 0x52, 0xaf, 0x3d, 0x50, 0x88, 0xf9, 0x3c, 0xe5, 0xab, 0x82, 0xbe,
  0xe0, 0x09, 0xce, 0x3d, 0x24, 0xb6, 0x35, 0xbd, 0xdc, 0xa1, 0x0b, 0xbe,
  0xf2, 0xbd, 0xe9, 0xbd, 0x9c, 0x93, 0x55, 0xbd, 0x98, 0xa3, 0x81, 0xbd,
  0x20, 0x10, 0xf4, 0xbd, 0xde, 0xcc, 0xe3, 0xbd, 0x18, 0x42, 0x4a, 0x3e,
  0x9a, 0x02, 0x45, 0xbe, 0xd0, 0xc2, 0x75, 0x3d, 0xa4, 0xe2, 0x27, 0xbe,
  0x78, 0xe2, 0xc8, 0x3d, 0x74, 0x24, 0xdb, 0x3d, 0x80, 0x9a, 0xf6, 0xbd,
  0xe0, 0xcc, 0x71, 0x3d, 0xb6, 0xd1, 0x70, 0x3e, 0x54, 0x3b, 0x3a, 0xbe,
  0x50, 0xd4, 0x96, 0x3d, 0x26, 0x5f, 0x26, 0xbe, 0x58, 0xdf, 0x6a, 0x3d,
  0x94, 0xda, 0x4b, 0xbd, 0xc0, 0xc6, 0x47, 0x3c, 0x80, 0x93, 0xa4, 0x3c,
  0x70, 0x90, 0x17, 0x3d, 0xbe, 0x25, 0x21, 0x3e, 0xb4, 0xb1, 0x3f, 0x3e,
  0xb6, 0x0f, 0x81, 0xbd, 0xf0, 0xab, 0xc2, 0x3d, 0xcf, 0x53, 0x10, 0xbe,
  0xd4, 0x9d, 0xd8, 0xbd, 0xe0, 0xd5, 0xef, 0xbc, 0x98, 0x12, 0x1a, 0xbd,
  0x9e, 0x22, 0xcc, 0xbd, 0xac, 0x91, 0xbd, 0x3d, 0xf8, 0x54, 0x30, 0xbd,
  0x80, 0x10, 0x8b, 0x3b, 0x90, 0xe7, 0x74, 0x3e, 0xa1, 0x43, 0x7d, 0xbe,
  0x6c, 0x2d, 0x86, 0x3d, 0x82, 0x2b, 0x06, 0x3e, 0x5e, 0x47, 0x93, 0xbd,
  0xf0, 0x16, 0x2b, 0x3e, 0x9a, 0xcc, 0xd2, 0xbd, 0x08, 0x07, 0xb0, 0x3d,
  0x27, 0x81, 0x64, 0xbe, 0x80, 0x97, 0x32, 0xbe, 0x70, 0x32, 0xa9, 0x3c,
  0x0c, 0xf6, 0x96, 0xbd, 0x90, 0x8a, 0x1f, 0x3e, 0xba, 0x62, 0x75, 0x3e,
  0x96, 0xae, 0x4b, 0xbe, 0xd8, 0x9d, 0x03, 0x3d, 0xd6, 0x94, 0x72, 0xbe,
  0x90, 0x50, 0xef, 0x3d, 0xcc, 0x27, 0x67, 0xbe, 0x26, 0x61, 0x76, 0x3e,
  0x68, 0x51, 0x01, 0x3e, 0x59, 0xa3, 0x60, 0xbe, 0xc0, 0x28, 0xb6, 0x3b,
  0x20, 0x09, 0x2d, 0x3c, 0x1a, 0x51, 0xcf, 0xbd, 0x1e, 0x8f, 0x6a, 0x3e,
  0x44, 0x72, 0x29, 0xbe, 0x68, 0x4c, 0x09, 0x3d, 0xae, 0xfb, 0x41, 0x3e,
  0x70, 0xee, 0x51, 0x3e, 0x30, 0xfc, 0x38, 0xbd, 0x40, 0xce, 0x4b, 0xbc,
  0x68, 0x9d, 0xa0, 0xbc, 0x26, 0x5e, 0x1f, 0x3e, 0x08, 0x5a, 0x9e, 0x3d,
  0x04, 0xf8, 0xec, 0x3d, 0x7c, 0xc1, 0xc1, 0x3d, 0x38, 0x14, 0x77, 0x3d,
  0x78, 0x3a, 0x63, 0x3e, 0x46, 0xcc, 0x0c, 0x3e, 0x00, 0x2c, 0x21, 0xbb,
  0x75, 0x35, 0x6d, 0xbe, 0x73, 0x5e, 0x6e, 0xbe, 0xf0, 0x77, 0x76, 0x3d,
  0x62, 0xc1, 0x5d, 0x3e, 0x58, 0xbb, 0x0f, 0x3d, 0x60, 0x7a, 0x64, 0xbe,
  0x2c, 0xf8, 0xd8, 0x3d, 0xf4, 0x23, 0x4c, 0xbe, 0xf8, 0x6e, 0x68, 0xbd,
  0xbf, 0x6f, 0x20, 0xbe, 0x00, 0x03, 0xc3, 0x3a, 0x60, 0x3d, 0x28, 0xbc,
  0x84, 0xba, 0x43, 0x3e, 0xd8, 0x34, 0xc1, 0xbc, 0xe0, 0x3f, 0x0c, 0xbc,
  0xda, 0x9b, 0x43, 0xbe, 0x5c, 0xa1, 0xf2, 0xbd, 0x10, 0x7c, 0x4c, 0x3e,
  0x0e, 0x0b, 0x48, 0xbe, 0xe8, 0xa2, 0xb6, 0xbc, 0x60, 0x15, 0xc3, 0x3d,
  0x30, 0x7d, 0x89, 0xbd, 0x28, 0x55, 0x6f, 0x3e, 0xde, 0x3b, 0x21, 0x3e,
  0x12, 0xfc, 0x4d, 0xbe, 0x4a, 0xb0, 0x1e, 0x3e, 0xe4, 0x7c, 0x7b, 0xbe,
  0x8a, 0x86, 0xe4, 0xbd, 0x18, 0x04, 0x15, 0xbe, 0x8a, 0x3b, 0x09, 0xbe,
  0xce, 0x4c, 0x61, 0x3e, 0xc0, 0xb7, 0x59, 0x3e, 0x10, 0x0b, 0x90, 0xbc,
  0x30, 0x1e, 0x6c, 0xbc, 0x02, 0xc9, 0x1a, 0x3e, 0x7e, 0x59, 0xed, 0xbd,
  0xc0, 0xbb, 0x8c, 0x3d, 0xed, 0x6b, 0x12, 0xbe, 0xe6, 0xde, 0x52, 0x3e,
  0xc0, 0x1f, 0x4a, 0x3e, 0x08, 0xb0, 0x46, 0x3e, 0x84, 0x99, 0x25, 0xbe,
  0xd0, 0x1f, 0x36, 0x3d, 0x98, 0x0d, 0x3a, 0xbe, 0x4a, 0x5e, 0x1e, 0x3e,
  0x1f, 0x3a, 0x5a, 0xbe, 0x84, 0x86, 0x82, 0xbd, 0x80, 0x61, 0xf0, 0xbb,
  0x10, 0x66, 0xab, 0xbd, 0x20, 0x88, 0x73, 0x3c, 0x56, 0xc7, 0x2a, 0x3e,
  0x38, 0x8c, 0x41, 0xbe, 0x98, 0x2a, 0x63, 0x3d, 0xe0, 0x90, 0x48, 0x3c,
  0x86, 0xdb, 0x18, 0xbe, 0xcc, 0xf5, 0x3f, 0x3e, 0x84, 0xbb, 0xdf, 0x3d,
  0x70, 0x8d, 0x2d, 0x3d, 0x22, 0x85, 0x21, 0x3e, 0x40, 0x2b, 0xec, 0xbb,
  0x0c, 0x98, 0xff, 0x3d, 0xe0, 0x85, 0x2b, 0x3d, 0x36, 0xe8, 0xe5, 0xbd,
  0x8c, 0xc5, 0xf6, 0x3d, 0xb0, 0x0f, 0x67, 0xbe, 0x8a, 0x33, 0xdf, 0xbd,
  0xe0, 0x08, 0x98, 0x3d, 0x60, 0xe8, 0x98, 0x3d, 0xb8, 0x50, 0x84, 0xbc,
  0xd8, 0x13, 0x19, 0x3e, 0x58, 0x90, 0x1d, 0x3d, 0x58, 0x57, 0x09, 0xbe,
  0xc1, 0x8f, 0x4c, 0xbe, 0x68, 0xc9, 0x4b, 0x3d, 0x7e, 0xd9, 0x3f, 0xbe,
  0xa8, 0x07, 0xf8, 0x3d, 0x00, 0xd2, 0xd6, 0x3a, 0xda, 0x42, 0xd9, 0xbd,
  0x0f, 0x0e, 0x5c, 0xbe, 0xa6, 0x70, 0x04, 0x3e, 0x90, 0x88, 0x84, 0x3d,
  0x99, 0xf7, 0x81, 0x3e, 0x48, 0x98, 0x52, 0xbe, 0x19, 0xab, 0x74, 0xbe,
  0x80, 0xee, 0xb0, 0x3d, 0x04, 0x3c, 0x5f, 0xbe, 0xd6, 0xd1, 0x64, 0x3e,
  0x84, 0xd3, 0x26, 0x3e, 0x90, 0x50, 0x1f, 0xbe, 0x6a, 0xcf, 0x3c, 0xbe,
  0xbc, 0xa5, 0x7f, 0xbd, 0x06, 0x6e, 0x34, 0xbe, 0x76, 0x5b, 0x69, 0xbe,
  0x00, 0x31, 0x93, 0x3a, 0x8a, 0x79, 0x11, 0x3e, 0x48, 0x41, 0xb2, 0xbc,
  0x38, 0x5e, 0xf9, 0x3d, 0x24, 0x83, 0xab, 0x3d, 0xdc, 0x24, 0x0a, 0xbd,
  0x18, 0x92, 0x5f, 0xbe, 0xcc, 0xc2, 0x9d, 0x3d, 0x90, 0xb2, 0x45, 0xbe,
  0xc0, 0x8f, 0xe3, 0x3c, 0xd4, 0x65, 0x5f, 0x3e, 0x55, 0x0b, 0x26, 0xbe,
  0xb6, 0xf7, 0xee, 0xbd, 0x88, 0x2d, 0x6e, 0x3d, 0x3c, 0x4d, 0xe8, 0x3d,
  0x70, 0x8a, 0x59, 0x3e, 0xb4, 0xad, 0x29, 0x3e, 0xe2, 0x10, 0x32, 0x3e,
  0xc2, 0x80, 0x16, 0x3e, 0xc1, 0xf7, 0x75, 0xbe, 0xa6, 0x79, 0x0f, 0xbe,
  0xbe, 0xa8, 0x52, 0x3e, 0x32, 0x88, 0xb0, 0xbd, 0x5d, 0xa7, 0x07, 0xbe,
  0x41, 0x5f, 0x5e, 0xbe, 0x9e, 0xa8, 0x05, 0x3e, 0xf0, 0x13, 0xc6, 0x3c,
  0x30, 0x6b, 0x80, 0x3c, 0x80, 0x98, 0xde, 0x3b, 0x94, 0x0e, 0x2e, 0xbe,
  0xd0, 0x75, 0xfa, 0x3d, 0xe4, 0xbd, 0x5c, 0x3e, 0x00, 0xb7, 0xab, 0x3c,
  0x90, 0x24, 0x7e, 0x3d, 0xf4, 0xa7, 0x5a, 0xbe, 0x9c, 0xbb, 0x02, 0xbd,
  0x84, 0x2a, 0x06, 0xbd, 0x10, 0x30, 0x44, 0x3d, 0xe0, 0x66, 0x9d, 0x3c,
  0x42, 0x9e, 0x8d, 0xbd, 0x5e, 0x32, 0x03, 0x3e, 0xfd, 0x9f, 0x4c, 0xbe,
  0xf6, 0xca, 0x16, 0x3e, 0x28, 0xe3, 0x4c, 0x3d, 0x80, 0x84, 0x63, 0xbd,
  0x9c, 0x51, 0x1f, 0xbd, 0x44, 0x7f, 0x42, 0xbe, 0xc8, 0x85, 0xcf, 0x3d,
  0x20, 0xb8, 0x6e, 0xbe, 0xf4, 0xe8, 0x02, 0x3e, 0x7e, 0x16, 0x7c, 0x3e,
  0x61, 0x4f, 0x29, 0xbe, 0x28, 0x86, 0x3a, 0x3e, 0xb0, 0xd0, 0x5f, 0xbc,
  0x3c, 0x7e, 0xea, 0x3d, 0x36, 0x35, 0x22, 0x3e, 0xad, 0x65, 0x3b, 0xbe,
  0x0d, 0xf2, 0x80, 0xbe, 0x7a, 0x7e, 0x68, 0xbe, 0xca, 0xc6, 0x15, 0x3e,
  0x9c, 0x30, 0x6f, 0xbe, 0x72, 0xc7, 0x17, 0xbe, 0xe4, 0x9d, 0xb0, 0x3d,
  0x75, 0x71, 0x79, 0xbe, 0x90, 0x46, 0x0f, 0x3d, 0xfe, 0x7f, 0x7d, 0x3e,
  0x70, 0xb6, 0xa6, 0x3c, 0x58, 0x57, 0xab, 0x3d, 0xd0, 0xa3, 0x9c, 0x3c,
  0x16, 0x15, 0x69, 0x3e, 0x00, 0xa2, 0x01, 0xbb, 0x94, 0x9b, 0x95, 0xbd,
  0xd7, 0x58, 0x00, 0xbe, 0xb0, 0xb9, 0x2f, 0x3e, 0xf2, 0x24, 0x18, 0xbe,
  0x4a, 0x94, 0x73, 0xbe, 0x32, 0xcf, 0x08, 0x3e, 0x2b, 0x2d, 0x82, 0x3e,
  0xe8, 0xe0, 0x69, 0x3d, 0x6a, 0x96, 0x20, 0x3e, 0xc6, 0xe7, 0x74, 0x3e,
  0xe6, 0xf2, 0x76, 0x3e, 0x66, 0x3b, 0xd2, 0xbd, 0x90, 0xaf, 0x55, 0x3e,
  0x78, 0x8e, 0x04, 0x3e, 0x14, 0x39, 0xe3, 0x3d, 0x28, 0x20, 0x79, 0xbd,
  0xf2, 0x3f, 0x69, 0x3e, 0x52, 0xc4, 0xb6, 0xbd, 0xf4, 0x2a, 0x01, 0x3e,
  0xc6, 0x26, 0x4e, 0x3e, 0xee, 0x47, 0x55, 0x3e, 0xa6, 0xcb, 0x75, 0x3e,
  0xcc, 0x95, 0x14, 0x3e, 0xaa, 0xf8, 0x64, 0x3e, 0xba, 0x5a, 0x68, 0x3e,
  0xac, 0xf6, 0x4b, 0xbe, 0xe0, 0xf6, 0x22, 0x3d, 0x3e, 0xe5, 0x42, 0x3e,
  0x6a, 0x63, 0x01, 0xbe, 0xc0, 0xf2, 0x61, 0x3e, 0x3c, 0x74, 0x05, 0xbd,
  0x40, 0x86, 0xdb, 0x3d, 0x30, 0xd0, 0x1d, 0xbd, 0xa9, 0x17, 0x0f, 0xbe,
  0x40, 0x30, 0x21, 0xbe, 0xb8, 0x17, 0x24, 0xbe, 0xbe, 0xd3, 0x3d, 0xbe,
  0xc0, 0xb0, 0x49, 0x3d, 0x8e, 0x7e, 0x3e, 0x3e, 0xa0, 0x71, 0x0a, 0x3c,
  0x2c, 0xda, 0xd6, 0xbd, 0x23, 0x36, 0x4b, 0xbe, 0x44, 0x8a, 0x0f, 0x3e,
  0xb2, 0x27, 0x44, 0x3e, 0xf6, 0xb5, 0x6e, 0x3e, 0xf4, 0x22, 0x1e, 0x3e,
  0x40, 0x95, 0x20, 0x3e, 0xac, 0x59, 0x4e, 0x3e, 0x7a, 0x62, 0x32, 0x3e,
  0x40, 0x2d, 0x3b, 0x3d, 0x42, 0x02, 0x47, 0xbe, 0xd6, 0xdf, 0x61, 0x3e,
  0xf2, 0xac, 0x12, 0x3e, 0xb8, 0x8d, 0x16, 0x3e, 0xf0, 0xff, 0x0d, 0x3d,
  0xc7, 0x52, 0x74, 0xbe, 0x1c, 0xe5, 0xe5, 0xbd, 0xa8, 0x68, 0x4f, 0x3d,
  0x50, 0x1d, 0xd2, 0xbd, 0xef, 0xcc, 0x81, 0x3e, 0x08, 0xf1, 0x5c, 0xbe,
  0x58, 0x6f, 0xc7, 0x3d, 0x34, 0xc6, 0xf0, 0x3d, 0x32, 0xd0, 0xce, 0xbd,
  0x7a, 0xd6, 0x85, 0xbd, 0x86, 0x5b, 0xfc, 0xbd, 0xae, 0x16, 0x9f, 0xbd,
  0x20, 0xdd, 0x2b, 0xbe, 0x62, 0xcb, 0x32, 0xbe, 0x50, 0x83, 0x41, 0x3e,
  0xcc, 0xaf, 0xa1, 0xbd, 0xf4, 0x7f, 0x0a, 0x3e, 0xc0, 0xb8, 0x4c, 0x3d,
  0xb0, 0xd7, 0x18, 0x3e, 0x20, 0x3a, 0x24, 0x3d, 0xbc, 0xe9, 0x89, 0x3d,
  0xaa, 0x20, 0x2d, 0x3e, 0x2a, 0x89, 0x82, 0xbe, 0x40, 0x7a, 0x68, 0x3d,
  0x98, 0x01, 0x35, 0x3d, 0x08, 0x3f, 0xf5, 0xbd, 0xf0, 0xd3, 0x92, 0x3c,
  0x54, 0xa1, 0xf4, 0x3d, 0x2c, 0xf3, 0xf1, 0xbd, 0x96, 0x1e, 0x17, 0xbe,
  0x5a, 0x55, 0x53, 0x3e, 0x7e, 0x37, 0x6e, 0x3e, 0x8c, 0x8c, 0x3d, 0xbd,
  0x57, 0x6d, 0x78, 0xbe, 0x28, 0xe7, 0xb0, 0x3d, 0x7e, 0xea, 0x39, 0xbe,
  0x10, 0xf5, 0x9e, 0xbc, 0x74, 0xf3, 0x58, 0xbe, 0x98, 0xff, 0xca, 0xbd,
  0x92, 0x13, 0x15, 0xbe, 0x8c, 0x63, 0x4a, 0x3e, 0xec, 0x5c, 0x1f, 0x3e,
  0x70, 0x39, 0x2e, 0x3e, 0x1c, 0xea, 0x42, 0x3e, 0xdc, 0x92, 0x75, 0x3e,
  0xbc, 0xf9, 0xce, 0xbd, 0xe8, 0x00, 0x9a, 0xbc, 0x10, 0xf0, 0xf6, 0xbd,
  0xf8, 0xb9, 0x2a, 0x3d, 0x8d, 0xa2, 0x7d, 0xbe, 0x12, 0x54, 0x2c, 0x3e,
  0x30, 0x82, 0x4a, 0xbc, 0xe2, 0xd7, 0x19, 0x3e, 0xd0, 0x0f, 0xb8, 0xbd,
  0x54, 0xaf, 0xca, 0xbd, 0xb8, 0x26, 0x36, 0xbe, 0x18, 0xc1, 0x02, 0x3e,
  0x98, 0x6b, 0xe5, 0xbc, 0x00, 0x16, 0x8a, 0x3b, 0xc2, 0xcb, 0x45, 0xbe,
  0x36, 0xf3, 0x7c, 0x3e, 0x20, 0x8c, 0x95, 0x3d, 0xb0, 0x75, 0x19, 0x3e,
  0x20, 0x37, 0x99, 0xbc, 0x5a, 0x3c, 0x66, 0xbe, 0xe8, 0x3f, 0xf0, 0x3d,
  0xd3, 0xc4, 0x80, 0xbe, 0xe4, 0xa4, 0xf6, 0xbd, 0x28, 0xf2, 0x11, 0xbe,
  0x40, 0x4a, 0xdc, 0xbc, 0xb0, 0xd3, 0x25, 0x3e, 0xce, 0x6a, 0x2b, 0x3e,
  0x9a, 0xd0, 0x7c, 0x3e, 0xf4, 0x58, 0xe7, 0xbd, 0xa0, 0xd1, 0x72, 0xbc,
  0xd6, 0x37, 0x78, 0x3e, 0x18, 0x66, 0x53, 0xbd, 0x30, 0x5c, 0x19, 0xbe,
  0xf2, 0xb1, 0x2d, 0xbe, 0x02, 0x31, 0x5f, 0x3e, 0xc1, 0x79, 0x34, 0xbe,
  0x34, 0xb7, 0x85, 0xbd, 0x3c, 0x42, 0x2e, 0x3e, 0x24, 0x22, 0x82, 0x3d,
  0x98, 0xeb, 0x57, 0x3d, 0xe8, 0x7e, 0x2a, 0xbd, 0x00, 0xc6, 0x5f, 0xbd,
  0x08, 0xab, 0x32, 0x3e, 0xf4, 0x40, 0x4f, 0x3e, 0x8e, 0x51, 0x7a, 0x3e,
  0x05, 0xce, 0x56, 0xbe, 0x01, 0xc5, 0x82, 0x3e, 0x86, 0x47, 0x5f, 0x3e,
  0x40, 0x4b, 0xed, 0x3c, 0xfc, 0x08, 0xc3, 0xbd, 0xb0, 0x22, 0x92, 0xbc,
  0x4e, 0x14, 0x50, 0x3e, 0x10, 0x37, 0x88, 0xbc, 0x40, 0x7b, 0x4e, 0xbd,
  0x6e, 0x79, 0x34, 0xbe, 0x1c, 0xaa, 0x6c, 0x3e, 0x80, 0x82, 0x6b, 0x3b,
  0x54, 0x46, 0x2d, 0x3e, 0x4c, 0x89, 0xfe, 0x3d, 0x96, 0x3b, 0x0c, 0xbe,
  0x4e, 0x77, 0x4c, 0x3e, 0x60, 0x0e, 0xf0, 0x3d, 0xf6, 0x8c, 0x3d, 0xbe,
  0x30, 0x39, 0x43, 0x3e, 0xc8, 0x28, 0xbd, 0x3d, 0xc6, 0xe6, 0x3a, 0xbe,
  0xb4, 0x98, 0x63, 0xbd, 0xac, 0x17, 0xae, 0x3d, 0x1a, 0x89, 0x16, 0x3e,
  0x60, 0x27, 0x1e, 0x3e, 0x8c, 0x6b, 0xe0, 0xbd, 0x34, 0x68, 0x1e, 0x3e,
  0xf4, 0xf0, 0xe5, 0x3d, 0x00, 0xe6, 0x5f, 0xbb, 0xac, 0xbf, 0x96, 0x3d,
  0xcc, 0x8d, 0xb5, 0x3d, 0xb0, 0xbc, 0x79, 0x3d, 0xb0, 0xfe, 0x00, 0xbe,
  0xc0, 0x01, 0x3b, 0xbd, 0x00, 0x3a, 0x4b, 0x3c, 0x40, 0x38, 0x4c, 0x3d,
  0xd8, 0xd9, 0x46, 0xbd, 0xd4, 0x5a, 0x2e, 0x3e, 0x00, 0x00, 0xdb, 0xb6,
  0x00, 0x40, 0x70, 0xbd, 0x07, 0x9a, 0x5e, 0xbe, 0x20, 0x8c, 0x58, 0x3c,
  0x82, 0xca, 0xd3, 0xbd, 0xd0, 0x6e, 0x34, 0xbe, 0xc8, 0x2b, 0x67, 0x3d,
  0xbc, 0x54, 0x2c, 0xbe, 0x50, 0xea, 0xd4, 0xbc, 0x6e, 0x37, 0x1a, 0x3e,
  0x64, 0x5f, 0xbe, 0x3d, 0x5c, 0x1c, 0x2f, 0xbe, 0x68, 0xe3, 0x30, 0xbe,
  0x3d, 0xab, 0x73, 0xbe, 0xc0, 0xe6, 0x87, 0xbc, 0xb0, 0x13, 0x67, 0xbe,
  0x4a, 0xb4, 0x4c, 0xbe, 0x80, 0xe6, 0x85, 0xbb, 0x28, 0x60, 0xaa, 0x3d,
  0x64, 0xdd, 0x39, 0xbe, 0xb8, 0xc5, 0x3a, 0xbd, 0xa0, 0x6d, 0x4d, 0xbe,
  0xf3, 0x48, 0x59, 0xbe, 0x33, 0xa7, 0x63, 0xbe, 0x8a, 0x4a, 0xd3, 0xbd,
  0xee, 0x4c, 0x5c, 0x3e, 0x02, 0x41, 0x79, 0x3e, 0x70, 0xc4, 0x1b, 0x3d,
  0xac, 0x0b, 0x08, 0xbe, 0x00, 0x9b, 0x4b, 0xbd, 0x70, 0xb5, 0x51, 0x3e,
  0x31, 0xd5, 0x6e, 0xbe, 0xdc, 0x4d, 0x9c, 0xbd, 0x54, 0x5b, 0xfc, 0x3d,
  0x08, 0x48, 0xb8, 0x3d, 0x10, 0x8f, 0xa6, 0xbd, 0x10, 0x23, 0xb2, 0x3c,
  0x84, 0xb1, 0x0c, 0xbd, 0x38, 0x4b, 0x1a, 0xbe, 0x2c, 0x9c, 0xb1, 0x3d,
  0xda, 0xd9, 0x1d, 0x3e, 0x38, 0x16, 0x5b, 0xbd, 0x97, 0x2f, 0x4c, 0xbe,
  0x80, 0x8f, 0xef, 0x3c, 0x58, 0x9e, 0x4d, 0x3e, 0xa4, 0x06, 0x5d, 0xbe,
  0xda, 0x85, 0x10, 0x3e, 0x32, 0x18, 0x70, 0x3e, 0xe7, 0x0b, 0x7c, 0xbe,
  0x70, 0x25, 0xd3, 0x3c, 0xa6, 0x94, 0x61, 0xbe, 0x59, 0x9c, 0x2f, 0xbe,
  0xfe, 0xc7, 0x29, 0x3e, 0x28, 0xf5, 0x20, 0x3e, 0x36, 0x3d, 0x77, 0x3e,
  0xa8, 0x02, 0x0a, 0x3d, 0x20, 0x33, 0xc7, 0x3d, 0x42, 0x87, 0x33, 0xbe,
  0x50, 0xc5, 0x76, 0x3d, 0x6e, 0xd4, 0x69, 0x3e, 0x58, 0x2c, 0x46, 0xbd,
  0x1a, 0x4e, 0x72, 0x3e, 0x80, 0x3a, 0x0b, 0x3c, 0x00, 0x0b, 0xe5, 0x3c,
  0xdd, 0xb6, 0x05, 0xbe, 0x48, 0xb4, 0x56, 0x3e, 0xba, 0x0a, 0x01, 0x3e,
  0x7e, 0x07, 0x8c, 0xbd, 0x6a, 0xc1, 0xc6, 0xbd, 0xba, 0xb7, 0x87, 0xbd,
  0xaa, 0xd3, 0x42, 0xbe, 0x88, 0xde, 0x0f, 0x3d, 0x9c, 0x26, 0x27, 0xbe,
  0x91, 0x67, 0x19, 0xbe, 0x80, 0x40, 0x46, 0xbb, 0xd8, 0x1a, 0xbe, 0x3d,
  0xaa, 0x5c, 0x4c, 0x3e, 0x25, 0x12, 0x04, 0xbe, 0x9a, 0x2e, 0x1d, 0xbe,
  0x69, 0xc1, 0x60, 0xbe, 0xb8, 0x17, 0x02, 0x3e, 0x7c, 0xa2, 0xf8, 0x3d,
  0x4e, 0x6c, 0x49, 0xbe, 0x46, 0x38, 0xad, 0xbd, 0x24, 0x94, 0xf5, 0xbd,
  0x8a, 0x4c, 0x40, 0xbe, 0xa0, 0x64, 0x88, 0xbd, 0x30, 0xc3, 0x32, 0x3e,
  0x14, 0x3c, 0x33, 0xbd, 0x80, 0xb9, 0x9b, 0xbb, 0x78, 0xc1, 0xc3, 0xbd,
  0x2e, 0xe2, 0x0e, 0xbe, 0x88, 0xb1, 0x2e, 0xbd, 0x65, 0x9b, 0x0c, 0xbe,
  0xde, 0x09, 0xae, 0xbd, 0xa3, 0x02, 0x51, 0xbe, 0x40, 0xc3, 0x9e, 0x3d,
  0x08, 0x73, 0x1e, 0x3e, 0x52, 0x9e, 0xad, 0xbd, 0x30, 0x18, 0x80, 0xbe,
  0xf8, 0x1d, 0xad, 0xbd, 0x80, 0xad, 0x3a, 0xbc, 0x18, 0xcc, 0x3d, 0x3e,
  0x3c, 0x14, 0x50, 0xbd, 0xe6, 0x1b, 0x72, 0x3e, 0xd0, 0xc2, 0x54, 0xbc,
  0xe4, 0xb5, 0x59, 0x3e, 0x10, 0xfc, 0x82, 0x3d, 0x1f, 0x50, 0x02, 0xbe,
  0xae, 0x35, 0x3a, 0x3e, 0x36, 0x8b, 0x05, 0x3e, 0xf4, 0xd6, 0x60, 0x3e,
  0x10, 0xc4, 0xcd, 0x3c, 0x60, 0xb3, 0x52, 0x3d, 0x50, 0xf7, 0xcf, 0x3c,
  0x30, 0xbe, 0xa6, 0x3c, 0xbe, 0x8c, 0x05, 0x3e, 0x60, 0xa4, 0x44, 0xbe,
  0x6e, 0xb2, 0x5f, 0xbe, 0xc0, 0x9c, 0xc1, 0xbc, 0x0e, 0x1c, 0x7e, 0x3e,
  0x70, 0xb4, 0x70, 0xbc, 0x1c, 0xc1, 0x2c, 0xbe, 0x5c, 0x6f, 0x34, 0xbe,
  0x2c, 0xe6, 0xec, 0x3d, 0x22, 0x18, 0x4a, 0xbe, 0x92, 0x0b, 0x4f, 0x3e,
  0x59, 0xcf, 0x5b, 0xbe, 0x9a, 0xc7, 0xd3, 0xbd, 0x80, 0x7d, 0x4f, 0xbe,
  0xc0, 0xa2, 0xce, 0xbb, 0x04, 0x65, 0x71, 0x3e, 0x40, 0x4e, 0xd8, 0xbb,
  0x18, 0x82, 0x51, 0x3d, 0x6e, 0xa3, 0x0f, 0x3e, 0x00, 0x44, 0xae, 0xbc,
  0xf9, 0xe4, 0x40, 0xbe, 0xa1, 0x4d, 0x61, 0xbe, 0x42, 0xb3, 0x73, 0x3e,
  0x90, 0xa7, 0x7c, 0xbe, 0x60, 0xd6, 0x86, 0x3c, 0xa8, 0x05, 0x04, 0x3d,
  0x30, 0x45, 0x28, 0xbd, 0x7e, 0x57, 0x4f, 0x3e, 0x60, 0x43, 0x58, 0x3e,
  0xd0, 0x2e, 0x49, 0x3d, 0x9e, 0xad, 0x15, 0xbe, 0xc0, 0x1b, 0x14, 0xbe,
  0x50, 0xce, 0x81, 0xbc, 0x28, 0x82, 0x97, 0xbd, 0xd8, 0x07, 0x12, 0xbe,
  0x70, 0xf0, 0x70, 0x3d, 0xc8, 0xd5, 0xb0, 0xbd, 0x75, 0x48, 0x2d, 0xbe,
  0xce, 0xa4, 0x56, 0xbe, 0xc4, 0xcc, 0xcc, 0xbd, 0x54, 0x1c, 0x6d, 0x3e,
  0xab, 0xff, 0x0b, 0xbe, 0x42, 0xe5, 0x42, 0xbe, 0xec, 0x68, 0x3b, 0xbe,
  0x20, 0x54, 0x3d, 0xbe, 0xdc, 0x04, 0x9f, 0x3d, 0xa0, 0x28, 0x91, 0xbc,
  0xae, 0x22, 0x3c, 0x3e, 0x76, 0x17, 0x44, 0x3e, 0x5e, 0xe9, 0xdd, 0xbd,
  0x40, 0xf0, 0x06, 0xbe, 0x08, 0x9a, 0x9f, 0x3d, 0x9c, 0x10, 0xbe, 0xbd,
  0xe8, 0x1d, 0xb6, 0xbd, 0x9a, 0x75, 0x0d, 0x3e, 0xf6, 0x59, 0x53, 0x3e,
  0x50, 0x64, 0x17, 0x3d, 0x10, 0xab, 0x56, 0x3d, 0xd8, 0x7b, 0x22, 0x3e,
  0x26, 0x57, 0x7c, 0x3e, 0x26, 0xdc, 0x7b, 0x3e, 0x2c, 0xc2, 0x10, 0xbe,
  0x60, 0x3e, 0xf4, 0x3d, 0x00, 0x5c, 0x79, 0x3d, 0xda, 0xad, 0x60, 0xbe,
  0xce, 0x8c, 0x60, 0x3e, 0x10, 0x41, 0xee, 0xbd, 0x2e, 0x0e, 0x75, 0xbe,
  0xb8, 0xfa, 0x6a, 0x3d, 0x94, 0x15, 0x86, 0x3d, 0xa6, 0xb6, 0x61, 0x3e,
  0x44, 0x02, 0x51, 0xbe, 0xd6, 0x78, 0x3d, 0x3e, 0x22, 0xc2, 0x1a, 0x3e,
  0x70, 0x74, 0x62, 0x3d, 0xee, 0x27, 0x1f, 0x3e, 0xe6, 0x37, 0x4b, 0x3e,
  0x7e, 0x5c, 0x78, 0xbe, 0xee, 0x98, 0x80, 0xbe, 0xfa, 0x24, 0x74, 0xbe,
  0x5a, 0x23, 0x20, 0xbe, 0x32, 0x61, 0x12, 0x3e, 0x08, 0x87, 0x61, 0x3e,
  0x26, 0x9e, 0x76, 0x3e, 0xa9, 0x40, 0x53, 0xbe, 0x14, 0x4f, 0x22, 0x3e,
  0x60, 0x48, 0xbc, 0x3d, 0x29, 0x60, 0x53, 0xbe, 0x10, 0x88, 0x80, 0xbd,
  0x45, 0xb6, 0x02, 0xbe, 0x00, 0x4e, 0x33, 0xbe, 0x5b, 0xd4, 0x41, 0xbe,
  0xd8, 0x3a, 0x3a, 0x3e, 0x05, 0x12, 0x5a, 0xbe, 0x34, 0x6f, 0x48, 0x3e,
  0x2c, 0x51, 0xd9, 0x3d, 0xb4, 0xc2, 0xa7, 0x3d, 0xb8, 0x77, 0x8d, 0xbd,
  0xeb, 0x01, 0x57, 0xbe, 0xc4, 0xdc, 0x8c, 0x3d, 0x94, 0x2c, 0xc0, 0x3d,
  0x9a, 0x54, 0x65, 0x3e, 0x0b, 0x49, 0x77, 0xbe, 0x6c, 0x4b, 0xa8, 0x3d,
  0x48, 0x48, 0x1e, 0xbe, 0xb2, 0x44, 0x66, 0xbe, 0xa9, 0x52, 0x64, 0xbe,
  0x94, 0x41, 0x1c, 0xbe, 0x00, 0xe7, 0x74, 0x3b, 0x3c, 0x7d, 0x3c, 0xbd,
  0xdc, 0x20, 0x0f, 0x3e, 0xbe, 0xc1, 0x0a, 0xbe, 0x88, 0x74, 0x2e, 0xbe,
  0x7a, 0x3a, 0x24, 0x3e, 0x73, 0x51, 0x2a, 0xbe, 0x12, 0x44, 0xff, 0xbd,
  0xa0, 0xd9, 0x3c, 0xbe, 0x68, 0xa1, 0x0e, 0xbe, 0xb4, 0x44, 0x81, 0xbd,
  0xec, 0x14, 0xef, 0x3d, 0x62, 0x5b, 0x43, 0x3e, 0xc8, 0x6b, 0x36, 0x3d,
  0x0e, 0xff, 0x07, 0xbe, 0x5f, 0x00, 0x83, 0x3e, 0xf7, 0x9e, 0x02, 0xbe,
  0x96, 0x36, 0x1c, 0x3e, 0xea, 0xd8, 0x34, 0x3e, 0xcc, 0x37, 0xf4, 0xbd,
  0x84, 0x04, 0x25, 0xbe, 0x1c, 0x74, 0x15, 0xbd, 0x80, 0xdd, 0x07, 0x3b,
  0xec, 0xc2, 0xa5, 0x3d, 0x9c, 0x8b, 0x18, 0xbd, 0xb6, 0x09, 0x4b, 0xbe,
  0x50, 0x21, 0x3a, 0xbd, 0x78, 0x9e, 0x0c, 0xbd, 0xcc, 0x5b, 0x3b, 0xbd,
  0x2c, 0x42, 0x70, 0x3e, 0xb1, 0x69, 0x7c, 0xbe, 0xca, 0x1e, 0xc0, 0xbd,
  0x1c, 0x94, 0x8b, 0x3d, 0x88, 0xfe, 0x25, 0x3e, 0xf2, 0x56, 0x2d, 0x3e,
  0x50, 0x34, 0x3c, 0x3d, 0xbe, 0xe0, 0x76, 0x3e, 0x7a, 0x61, 0x46, 0xbe,
  0x42, 0xcc, 0x00, 0xbe, 0x12, 0xb7, 0x23, 0xbe, 0x1a, 0xcd, 0x65, 0x3e,
  0x30, 0x81, 0x51, 0x3d, 0x18, 0x52, 0x49, 0x3e, 0x22, 0xb0, 0x3a, 0x3e,
  0x89, 0xff, 0x25, 0xbe, 0x43, 0x04, 0x83, 0xbe, 0xaa, 0x9e, 0x63, 0xbe,
  0xe8, 0x68, 0x43, 0xbe, 0x98, 0x7e, 0x2b, 0xbd, 0xa0, 0xf0, 0x74, 0xbd,
  0x39, 0xa1, 0x52, 0xbe, 0x6b, 0x4f, 0x36, 0xbe, 0xc8, 0xdb, 0xeb, 0x3d,
  0x1e, 0x6b, 0x99, 0xbd, 0x20, 0xa9, 0x2c, 0x3d, 0x1c, 0x3d, 0x71, 0xbd,
  0x26, 0xd0, 0x55, 0xbe, 0xe6, 0x39, 0x40, 0xbe, 0xa8, 0xd3, 0x81, 0x3d,
  0x08, 0x3a, 0x76, 0xbe, 0x9e, 0x0d, 0x6a, 0x3e, 0xd0, 0xa9, 0x25, 0xbd,
  0x20, 0x6b, 0x72, 0xbc, 0xcc, 0x75, 0x33, 0xbe, 0xb0, 0xfd, 0x84, 0xbd,
  0x84, 0x5d, 0x34, 0xbe, 0xe6, 0x95, 0x4c, 0x3e, 0x00, 0x2e, 0x75, 0x3a,
  0x60, 0x30, 0x80, 0xbe, 0x40, 0x84, 0xfd, 0x3b, 0xdc, 0xb2, 0xa9, 0x3d,
  0x4c, 0x0c, 0x41, 0xbd, 0xec, 0x0a, 0xf9, 0xbd, 0x38, 0xf2, 0xfc, 0xbd,
  0xe2, 0x7b, 0x4a, 0x3e, 0x94, 0xe2, 0x01, 0xbe, 0x68, 0x4b, 0x2b, 0x3d,
  0x10, 0xfa, 0xf2, 0x3c, 0x62, 0xa3, 0x09, 0xbe, 0x14, 0xda, 0xa8, 0xbd,
  0x48, 0x7a, 0x7c, 0xbd, 0x0a, 0x4d, 0x21, 0xbe, 0xa4, 0x76, 0x66, 0x3e,
  0xfc, 0xb6, 0x1a, 0x3e, 0xa2, 0x21, 0x78, 0x3e, 0x94, 0xca, 0x2e, 0xbe,
  0x3a, 0x0b, 0x01, 0x3e, 0x10, 0x83, 0x3f, 0x3e, 0x8c, 0xb1, 0xd1, 0x3d,
  0x0a, 0x60, 0x27, 0xbe, 0x40, 0x78, 0x83, 0xbe, 0x44, 0xb6, 0x63, 0xbd,
  0xee, 0x6b, 0x3d, 0x3e, 0xb4, 0xec, 0x38, 0xbd, 0xee, 0xa4, 0xf0, 0xbd,
  0x00, 0xc3, 0xc0, 0x3b, 0xd6, 0xde, 0x81, 0xbe, 0xbc, 0xf5, 0x37, 0xbe,
  0x31, 0xbb, 0x80, 0xbe, 0x3e, 0xa5, 0x5a, 0xbe, 0x46, 0x43, 0x1d, 0x3e,
  0xfc, 0x1f, 0x40, 0xbd, 0x1c, 0x57, 0x57, 0x3e, 0xfc, 0xd2, 0xb9, 0xbd,
  0x53, 0xd2, 0x70, 0xbe, 0x5a, 0x39, 0x30, 0x3e, 0xba, 0x39, 0x97, 0xbd,
  0xa0, 0xc7, 0x08, 0xbe, 0x90, 0x7a, 0xdb, 0x3d, 0xe0, 0xe7, 0x3b, 0x3e,
  0x3c, 0xf2, 0x61, 0x3e, 0xda, 0x65, 0x42, 0xbe, 0x82, 0xf4, 0x01, 0x3e,
  0x30, 0xf4, 0xe2, 0x3c, 0x00, 0xd8, 0xfc, 0x3b, 0x00, 0x69, 0xa2, 0x3d,
  0x4c, 0xde, 0x25, 0xbd, 0xc0, 0x32, 0xa7, 0xbb, 0x3f, 0x1e, 0x82, 0x3e,
  0xd0, 0xd3, 0x11, 0xbe, 0xea, 0xe3, 0x81, 0xbd, 0x43, 0xbd, 0x81, 0x3e,
  0x44, 0xa5, 0x4c, 0xbd, 0x44, 0x1b, 0xb7, 0x3d, 0x96, 0xdb, 0x49, 0x3e,
  0x44, 0xeb, 0xcb, 0x3d, 0xee, 0xcc, 0x39, 0xbe, 0x2d, 0xfa, 0x57, 0xbe,
  0xf4, 0x28, 0x66, 0x3e, 0x7a, 0xd4, 0x0d, 0x3e, 0x88, 0x8d, 0x3e, 0x3d,
  0x08, 0x3d, 0x63, 0x3e, 0xd0, 0x9d, 0x32, 0x3e, 0x88, 0x32, 0xc4, 0xbc,
  0xc0, 0xc0, 0x74, 0x3d, 0x12, 0x1e, 0xc5, 0xbd, 0x52, 0xc0, 0x33, 0x3e,
  0xc0, 0x09, 0x77, 0x3e, 0x5e, 0x1d, 0x53, 0xbe, 0xff, 0xab, 0x77, 0xbe,
  0xdc, 0xd2, 0xca, 0xbd, 0xd3, 0xcb, 0x83, 0x3e, 0x28, 0x79, 0x55, 0x3d,
  0x44, 0x94, 0x4e, 0x3e, 0xf0, 0xad, 0x33, 0x3d, 0xf6, 0x66, 0x63, 0x3e,
  0x80, 0x43, 0x01, 0xbc, 0x02, 0xd4, 0x2f, 0x3e, 0x4e, 0xd4, 0x63, 0xbe,
  0x48, 0xbd, 0x3f, 0xbd, 0x80, 0xd1, 0xf6, 0x3c, 0xd2, 0xaa, 0x74, 0xbe,
  0xa0, 0xa0, 0xfe, 0x3c, 0xa6, 0x6f, 0x10, 0xbe, 0xf8, 0x05, 0x62, 0xbe,
  0x8c, 0xd0, 0x87, 0x3d, 0x22, 0xaf, 0x52, 0x3e, 0x44, 0x61, 0x04, 0x3e,
  0x06, 0x20, 0x1c, 0xbe, 0x67, 0xbb, 0x7d, 0xbe, 0xf9, 0xd4, 0x68, 0xbe,
  0xc0, 0x81, 0xbb, 0x3b, 0x90, 0xa1, 0x92, 0x3d, 0xcc, 0x13, 0x56, 0xbe,
  0xb0, 0x7d, 0xeb, 0xbc, 0xe4, 0x0d, 0x68, 0xbd, 0x21, 0x57, 0x6f, 0xbe,
  0x38, 0x39, 0x4e, 0x3e, 0x76, 0x05, 0x1c, 0xbe, 0x5c, 0x91, 0x69, 0x3e,
  0xf9, 0x6f, 0x6d, 0xbe, 0x92, 0xb1, 0x02, 0x3e, 0xf0, 0x22, 0xa6, 0x3d,
  0xcc, 0xe2, 0x83, 0x3d, 0x24, 0xa0, 0xd4, 0x3d, 0x5e, 0x8f, 0x63, 0xbe,
  0xb6, 0xcb, 0x9f, 0xbd, 0x08, 0x88, 0xfd, 0x3d, 0x28, 0xc0, 0x98, 0xbd,
  0x94, 0xe4, 0x1c, 0xbd, 0xe5, 0x07, 0x2e, 0xbe, 0x04, 0x63, 0x57, 0xbd,
  0xa8, 0x27, 0x80, 0xbc, 0xc8, 0xca, 0x23, 0x3d, 0xbe, 0x8a, 0x3e, 0xbe,
  0x26, 0xd2, 0xd9, 0xbd, 0x98, 0xb2, 0xbd, 0xbd, 0x68, 0x8e, 0xd7, 0xbc,
  0x82, 0x4e, 0x3d, 0x3e, 0xa0, 0xfc, 0x14, 0x3d, 0xe0, 0xff, 0xf4, 0x3c,
  0x40, 0x52, 0xeb, 0x3d, 0x8d, 0xff, 0x0e, 0xbe, 0x1a, 0x2c, 0x2d, 0xbe,
  0x2c, 0x19, 0x4f, 0x3e, 0x8c, 0x77, 0x9a, 0x3d, 0xf8, 0x9f, 0x00, 0x3d,
  0x80, 0xd3, 0x55, 0x3c, 0x00, 0x02, 0x65, 0x3d, 0xd0, 0x2c, 0xd7, 0x3c,
  0x50, 0xb5, 0x29, 0xbd, 0x80, 0xd7, 0x99, 0xbb, 0x88, 0x18, 0x8b, 0x3d,
  0xbe, 0x44, 0xc7, 0xbd, 0x1c, 0x5c, 0xf6, 0xbd, 0x8a, 0x45, 0x04, 0x3e,
  0x7a, 0x37, 0x8a, 0xbd, 0x3a, 0x3d, 0x41, 0x3e, 0x94, 0x47, 0x98, 0xbd,
  0xce, 0x7f, 0x44, 0x3e, 0xf5, 0x41, 0x6b, 0xbe, 0x9c, 0x75, 0xee, 0x3d,
  0xd8, 0xdc, 0x6a, 0xbd, 0x00, 0x19, 0xaa, 0xba, 0xdc, 0xb5, 0xdd, 0x3d,
  0xd8, 0xd1, 0x29, 0xbd, 0xca, 0x04, 0x43, 0xbe, 0xa0, 0xd1, 0xce, 0x3c,
  0x36, 0x71, 0xa0, 0xbd, 0xda, 0x9f, 0x02, 0x3e, 0x98, 0x68, 0x17, 0x3e,
  0x04, 0x87, 0x30, 0x3e, 0x74, 0xba, 0x6e, 0x3e, 0x7f, 0xdd, 0x71, 0xbe,
  0x9c, 0xb1, 0xd0, 0xbd, 0x3c, 0x95, 0x0b, 0xbd, 0x4e, 0x61, 0x52, 0xbe,
  0xae, 0x50, 0xce, 0xbd, 0x80, 0x5d, 0x25, 0x3d, 0x29, 0xc0, 0x47, 0xbe,
  0xd8, 0xa2, 0x16, 0xbd, 0x50, 0xbf, 0xc6, 0x3d, 0x98, 0x4d, 0xe7, 0xbd,
  0xc0, 0x7e, 0x45, 0x3c, 0xd0, 0x49, 0xae, 0xbc, 0x2e, 0x23, 0x6b, 0xbe,
  0xa4, 0x99, 0x53, 0x3e, 0x84, 0xce, 0x41, 0xbe, 0xde, 0xca, 0x64, 0x3e,
  0xf4, 0xcb, 0x85, 0xbd, 0x38, 0x55, 0xe4, 0x3d, 0xb6, 0xc6, 0x18, 0x3e,
  0xec, 0x01, 0x49, 0x3e, 0x06, 0x24, 0x1b, 0xbe, 0xf8, 0x8b, 0x84, 0xbc,
  0x3e, 0x52, 0x3e, 0xbe, 0xb0, 0xdb, 0x3e, 0xbd, 0x2c, 0x1b, 0x2c, 0xbe,
  0x8a, 0x15, 0x6a, 0xbe, 0xc2, 0xef, 0x1b, 0xbe, 0x46, 0x63, 0x2c, 0x3e,
  0xed, 0xa4, 0x03, 0xbe, 0xb8, 0xe6, 0x6b, 0x3e, 0xa0, 0xba, 0x45, 0xbc,
  0x82, 0x4e, 0x9e, 0xbd, 0xbc, 0xaa, 0x50, 0x3e, 0x28, 0x90, 0x96, 0x3d,
  0x1e, 0x42, 0x13, 0x3e, 0x48, 0x9c, 0xf9, 0x3d, 0x54, 0xf3, 0xbb, 0x3d,
  0xb8, 0x8a, 0x12, 0xbe, 0x30, 0x7e, 0x78, 0x3d, 0x60, 0xc5, 0x5e, 0x3c,
  0xfa, 0x1b, 0x27, 0x3e, 0x9a, 0x47, 0x5f, 0x3e, 0x14, 0xad, 0x9d, 0x3d,
  0x4c, 0xa5, 0x40, 0xbe, 0x4c, 0xe7, 0x3d, 0xbd, 0x10, 0x39, 0x2b, 0xbd,
  0xac, 0x4e, 0x3d, 0x3e, 0x2f, 0xd9, 0x83, 0x3e, 0x32, 0xa5, 0x24, 0x3e,
  0x68, 0xb8, 0x13, 0x3e, 0xde, 0xb9, 0x53, 0xbe, 0xb8, 0xd4, 0xc7, 0xbd,
  0xf7, 0xae, 0x2a, 0xbe, 0x54, 0xbf, 0x58, 0x3e, 0xc3, 0xe4, 0x57, 0xbe,
  0xb0, 0x24, 0x5c, 0x3d, 0xdc, 0x47, 0xec, 0x3d, 0x94, 0x7b, 0x82, 0xbe,
  0xd1, 0xca, 0x7a, 0xbe, 0x38, 0x0d, 0x45, 0xbd, 0x4c, 0xef, 0xbb, 0xbd,
  0x2c, 0xcc, 0x0f, 0xbe, 0x74, 0xa6, 0xe8, 0x3d, 0xa6, 0x10, 0x47, 0x3e,
  0x70, 0x3a, 0x0e, 0xbd, 0x58, 0x82, 0x22, 0xbe, 0x60, 0xcf, 0xc6, 0xbc,
  0x80, 0x69, 0xf4, 0x3d, 0x84, 0x14, 0xad, 0x3d, 0x16, 0xd7, 0x8c, 0xbd,
  0xd6, 0x3f, 0x98, 0xbd, 0x12, 0x3a, 0x8c, 0xbd, 0x70, 0x7b, 0x58, 0x3e,
  0x00, 0xad, 0x15, 0x3c, 0x78, 0x24, 0x4f, 0x3e, 0x30, 0xf7, 0xf5, 0xbd,
  0x42, 0x8d, 0x7d, 0x3e, 0x80, 0x4b, 0x2b, 0x3e, 0xf0, 0xed, 0x1b, 0xbd,
  0x1a, 0x4a, 0xa1, 0xbd, 0xdc, 0x1b, 0xf6, 0x3d, 0x39, 0x30, 0x80, 0xbe,
  0xc0, 0x49, 0x36, 0x3e, 0x50, 0x98, 0x38, 0xbc, 0xf8, 0x3d, 0x76, 0xbe,
  0xb0, 0xf2, 0x6a, 0x3e, 0x0c, 0x85, 0xdb, 0x3d, 0x08, 0x73, 0xba, 0x3d,
  0xfe, 0x68, 0x1f, 0x3e, 0xee, 0x1c, 0x57, 0x3e, 0x64, 0xa1, 0xd3, 0xbd,
  0x74, 0x8e, 0x91, 0x3d, 0xc8, 0x36, 0x3b, 0xbe, 0x90, 0x66, 0xa9, 0x3c,
  0x3e, 0x50, 0x94, 0xbd, 0xe0, 0x78, 0x42, 0xbd, 0xee, 0xd2, 0x1d, 0x3e,
  0x34, 0x9e, 0x9f, 0xbd, 0x3a, 0x30, 0x0d, 0x3e, 0x00, 0x94, 0x6b, 0x3e,
  0xe6, 0x3e, 0x43, 0xbe, 0x14, 0x0b, 0x50, 0xbd, 0x7c, 0xc4, 0x74, 0x3e,
  0xf3, 0xa0, 0x4e, 0xbe, 0xf0, 0x08, 0xa9, 0xbd, 0x38, 0xce, 0x02, 0x3e,
  0xcc, 0x58, 0x8c, 0xbd, 0xc0, 0x15, 0x8b, 0x3c, 0x00, 0x79, 0x91, 0x3b,
  0xca, 0xf6, 0x38, 0x3e, 0x1e, 0x57, 0xa4, 0xbd, 0x16, 0x86, 0xbd, 0xbd,
  0xa0, 0x8f, 0x7e, 0x3c, 0x4a, 0x4d, 0x70, 0xbe, 0x27, 0xa4, 0x81, 0x3e,
  0x5e, 0x13, 0x7e, 0x3e, 0x02, 0x42, 0x22, 0x3e, 0x04, 0x9e, 0x81, 0x3d,
  0x5a, 0x0a, 0x81, 0xbe, 0xb8, 0x2b, 0x87, 0xbd, 0x2a, 0x0d, 0x47, 0x3e,
  0xf3, 0xc8, 0x51, 0xbe, 0x00, 0x33, 0x09, 0x3c, 0x8e, 0xeb, 0x72, 0x3e,
  0x1a, 0xd3, 0x10, 0x3e, 0xb2, 0xbe, 0x25, 0x3e, 0x24, 0x53, 0x4c, 0xbe,
  0xaa, 0x80, 0xdc, 0xbd, 0x7c, 0xba, 0x0a, 0xbe, 0x1c, 0x38, 0x8d, 0x3d,
  0x88, 0x83, 0x24, 0x3e, 0x0a, 0xf4, 0x1c, 0xbe, 0x40, 0xee, 0x65, 0xbd,
  0x40, 0xe1, 0xb6, 0xbb, 0x40, 0x2e, 0x93, 0xbd, 0x40, 0xf3, 0xe9, 0x3b,
  0xaa, 0x18, 0x68, 0xbe, 0x3a, 0x18, 0xa7, 0xbd, 0xa0, 0xf2, 0x24, 0x3d,
  0x68, 0x2b, 0xe6, 0xbd, 0x5c, 0xa8, 0x06, 0xbe, 0x61, 0x8f, 0x3c, 0xbe,
  0xc4, 0x47, 0x31, 0xbe, 0xa6, 0x91, 0x5a, 0x3e, 0x4c, 0xa2, 0x1f, 0x3e,
  0x88, 0xb2, 0xc4, 0xbd, 0xbb, 0xed, 0x56, 0xbe, 0xec, 0x40, 0xfb, 0xbd,
  0xa8, 0xe1, 0x06, 0x3d, 0x56, 0xe8, 0xcd, 0xbd, 0x48, 0x3d, 0xae, 0x3d,
  0x8a, 0x5f, 0x33, 0x3e, 0xf8, 0x6d, 0x18, 0xbe, 0xc0, 0x0a, 0xfe, 0x3d,
  0x58, 0x96, 0x78, 0xbe, 0xfe, 0xcb, 0x7e, 0xbe, 0x30, 0x95, 0x6b, 0x3d,
  0xb4, 0x78, 0xd0, 0x3d, 0x87, 0x31, 0x1e, 0xbe, 0x1b, 0x6c, 0x6f, 0xbe,
  0xe0, 0x06, 0x4d, 0x3d, 0x22, 0x07, 0x5c, 0x3e, 0xb8, 0xf4, 0x2c, 0xbd,
  0x40, 0x46, 0x0e, 0x3d, 0x46, 0xf5, 0x7d, 0x3e, 0x12, 0xd2, 0x37, 0x3e,
  0x8c, 0x6c, 0x42, 0xbe, 0x24, 0x3c, 0xbd, 0x3d, 0x6e, 0xdf, 0x23, 0x3e,
  0x10, 0xa1, 0x3d, 0xbd, 0x98, 0xa2, 0xec, 0x3d, 0xe8, 0x15, 0x83, 0xbe,
  0xd5, 0x7e, 0x7c, 0xbe, 0x0c, 0xa8, 0x24, 0xbe, 0x24, 0x82, 0x37, 0xbe,
  0xd8, 0xff, 0x8c, 0x3d, 0x40, 0x5c, 0xee, 0x3c, 0x40, 0xc7, 0x08, 0x3d,
  0xcc, 0xa1, 0x31, 0x3e, 0xa2, 0x36, 0xaf, 0xbd, 0x92, 0x22, 0x3e, 0x3e,
  0x20, 0x26, 0xa8, 0x3c, 0xa5, 0x0e, 0x80, 0x3e, 0x06, 0x2c, 0xe7, 0xbd,
  0x30, 0x9f, 0x70, 0x3e, 0x94, 0x45, 0x98, 0xbd, 0xb8, 0x5b, 0x83, 0xbe,
  0xe0, 0x93, 0x69, 0xbe, 0x30, 0x98, 0x3b, 0xbe, 0x18, 0x9b, 0x35, 0x3d,
  0x06, 0xe9, 0x2d, 0xbe, 0xd0, 0x00, 0x7e, 0xbd, 0xe6, 0x97, 0x28, 0xbe,
  0x40, 0xdc, 0x23, 0x3c, 0x08, 0x91, 0x2a, 0xbe, 0xc2, 0x41, 0x21, 0x3e,
  0xdc, 0xaf, 0x37, 0x3e, 0x60, 0xee, 0x05, 0xbe, 0x38, 0x50, 0x73, 0x3d,
  0xbc, 0xc7, 0xe2, 0x3d, 0x90, 0x6f, 0x77, 0xbe, 0xaa, 0xf0, 0xb6, 0xbd,
  0x8c, 0x5d, 0xea, 0x3d, 0xfc, 0xf5, 0x45, 0x3e, 0x8c, 0x98, 0x53, 0xbe,
  0x0c, 0xa6, 0x90, 0x3d, 0x38, 0xee, 0xf6, 0xbd, 0xc8, 0x6f, 0x43, 0xbd,
  0xd9, 0x7d, 0x42, 0xbe, 0x7c, 0x99, 0xb5, 0xbd, 0xea, 0x59, 0x69, 0x3e,
  0x98, 0x7f, 0x41, 0x3d, 0x78, 0x03, 0x15, 0x3e, 0x02, 0xbc, 0xe9, 0xbd,
  0x42, 0xae, 0x05, 0x3e, 0xa2, 0x55, 0xca, 0xbd, 0xac, 0x08, 0x1f, 0xbd,
  0x40, 0x87, 0xa7, 0xbb, 0x98, 0x76, 0x3e, 0x3d, 0x7a, 0x87, 0x5b, 0x3e,
  0x40, 0x2e, 0xfc, 0x3c, 0x98, 0x9c, 0xa9, 0xbd, 0x42, 0x3c, 0x7e, 0xbe,
  0xf4, 0x36, 0x42, 0x3e, 0x18, 0xf9, 0x11, 0x3e, 0x0a, 0x96, 0x7c, 0xbe,
  0x20, 0x3f, 0x24, 0xbe, 0xd1, 0x95, 0x15, 0xbe, 0x40, 0x91, 0x59, 0x3d,
  0x26, 0xc8, 0x82, 0xbe, 0x0a, 0x8b, 0x12, 0xbe, 0xdc, 0x77, 0x0f, 0x3e,
  0xfc, 0x89, 0x06, 0xbd, 0x59, 0x16, 0x4f, 0xbe, 0x8c, 0x79, 0x7e, 0xbe,
  0x08, 0xf9, 0x3b, 0x3d, 0x54, 0x60, 0x0b, 0xbe, 0x44, 0xc3, 0xd0, 0x3d,
  0xf0, 0x08, 0x14, 0x3d, 0x78, 0xb9, 0x01, 0x3d, 0xa3, 0x6a, 0x82, 0x3e,
  0x4e, 0x0d, 0x7c, 0x3e, 0x2c, 0x0c, 0x94, 0x3d, 0x91, 0x0d, 0x80, 0x3e,
  0xd2, 0xe9, 0x22, 0x3e, 0x82, 0x85, 0x64, 0x3e, 0xf0, 0x55, 0xaf, 0xbc,
  0xc9, 0xea, 0x83, 0x3e, 0x7d, 0x22, 0x5c, 0xbe, 0xed, 0xc7, 0x25, 0xbe,
  0xe0, 0x47, 0x04, 0x3d, 0xd8, 0x35, 0x0d, 0x3e, 0x5e, 0x47, 0x09, 0x3e,
  0x6c, 0xf9, 0x67, 0xbd, 0x6c, 0x94, 0x3d, 0x3e, 0xf6, 0xaf, 0xb0, 0xbd,
  0xe8, 0xcd, 0x91, 0x3d, 0x07, 0xd3, 0x0e, 0xbe, 0x78, 0xbe, 0x46, 0x3d,
  0x57, 0x39, 0x0f, 0xbe, 0x74, 0xa1, 0x5b, 0x3e, 0x38, 0xfe, 0xff, 0xff,
  0x3c, 0xfe, 0xff, 0xff, 0x0f, 0x00, 0x00, 0x00, 0x4d, 0x4c, 0x49, 0x52,
  0x20, 0x43, 0x6f, 0x6e, 0x76, 0x65, 0x72, 0x74, 0x65, 0x64, 0x2e, 0x00,
  0x01, 0x00, 0x00, 0x00, 0x14, 0x00, 0x00, 0x00, 0x00, 0x00, 0x0e, 0x00,
  0x18, 0x00, 0x14, 0x00, 0x10, 0x00, 0x0c, 0x00, 0x08, 0x00, 0x04, 0x00,
  0x0e, 0x00, 0x00, 0x00, 0x14, 0x00, 0x00, 0x00, 0x1c, 0x00, 0x00, 0x00,
  0x6c, 0x00, 0x00, 0x00, 0x70, 0x00, 0x00, 0x00, 0x74, 0x00, 0x00, 0x00,
  0x04, 0x00, 0x00, 0x00, 0x6d, 0x61, 0x69, 0x6e, 0x00, 0x00, 0x00, 0x00,
  0x01, 0x00, 0x00, 0x00, 0x14, 0x00, 0x00, 0x00, 0x00, 0x00, 0x0e, 0x00,
  0x16, 0x00, 0x00, 0x00, 0x10, 0x00, 0x0c, 0x00, 0x0b, 0x00, 0x04, 0x00,
  0x0e, 0x00, 0x00, 0x00, 0x18, 0x00, 0x00, 0x00, 0x00, 0x00, 0x00, 0x08,
  0x18, 0x00, 0x00, 0x00, 0x1c, 0x00, 0x00, 0x00, 0x00, 0x00, 0x06, 0x00,
  0x08, 0x00, 0x07, 0x00, 0x06, 0x00, 0x00, 0x00, 0x00, 0x00, 0x00, 0x01,
  0x01, 0x00, 0x00, 0x00, 0x02, 0x00, 0x00, 0x00, 0x03, 0x00, 0x00, 0x00,
  0x00, 0x00, 0x00, 0x00, 0x01, 0x00, 0x00, 0x00, 0xff, 0xff, 0xff, 0xff,
  0x01, 0x00, 0x00, 0x00, 0x02, 0x00, 0x00, 0x00, 0x01, 0x00, 0x00, 0x00,
  0x00, 0x00, 0x00, 0x00, 0x03, 0x00, 0x00, 0x00, 0xe0, 0x00, 0x00, 0x00,
  0x78, 0x00, 0x00, 0x00, 0x04, 0x00, 0x00, 0x00, 0x42, 0xff, 0xff, 0xff,
  0x00, 0x00, 0x00, 0x01, 0x14, 0x00, 0x00, 0x00, 0x1c, 0x00, 0x00, 0x00,
  0x1c, 0x00, 0x00, 0x00, 0x03, 0x00, 0x00, 0x00, 0x34, 0x00, 0x00, 0x00,
  0x02, 0x00, 0x00, 0x00, 0xff, 0xff, 0xff, 0xff, 0x32, 0x00, 0x00, 0x00,
  0x2c, 0xff, 0xff, 0xff, 0x1b, 0x00, 0x00, 0x00, 0x53, 0x74, 0x61, 0x74,
  0x65, 0x66, 0x75, 0x6c, 0x50, 0x61, 0x72, 0x74, 0x69, 0x74, 0x69, 0x6f,
  0x6e, 0x65, 0x64, 0x43, 0x61, 0x6c, 0x6c, 0x5f, 0x31, 0x3a, 0x30, 0x00,
  0x02, 0x00, 0x00, 0x00, 0x01, 0x00, 0x00, 0x00, 0x32, 0x00, 0x00, 0x00,
  0x00, 0x00, 0x16, 0x00, 0x18, 0x00, 0x14, 0x00, 0x00, 0x00, 0x10, 0x00,
  0x0c, 0x00, 0x08, 0x00, 0x00, 0x00, 0x00, 0x00, 0x00, 0x00, 0x07, 0x00,
  0x16, 0x00, 0x00, 0x00, 0x00, 0x00, 0x00, 0x01, 0x10, 0x00, 0x00, 0x00,
  0x10, 0x00, 0x00, 0x00, 0x02, 0x00, 0x00, 0x00, 0x2c, 0x00, 0x00, 0x00,
  0x8c, 0xff, 0xff, 0xff, 0x1f, 0x00, 0x00, 0x00, 0x66, 0x75, 0x6e, 0x63,
  0x74, 0x69, 0x6f, 0x6e, 0x61, 0x6c, 0x5f, 0x31, 0x5f, 0x31, 0x2f, 0x6c,
  0x61, 0x79, 0x65, 0x72, 0x5f, 0x31, 0x5f, 0x31, 0x2f, 0x4d, 0x61, 0x74,
  0x4d, 0x75, 0x6c, 0x00, 0x02, 0x00, 0x00, 0x00, 0x32, 0x00, 0x00, 0x00,
  0x28, 0x00, 0x00, 0x00, 0x00, 0x00, 0x16, 0x00, 0x1c, 0x00, 0x18, 0x00,
  0x00, 0x00, 0x14, 0x00, 0x10, 0x00, 0x0c, 0x00, 0x00, 0x00, 0x00, 0x00,
  0x08, 0x00, 0x07, 0x00, 0x16, 0x00, 0x00, 0x00, 0x00, 0x00, 0x00, 0x01,
  0x14, 0x00, 0x00, 0x00, 0x20, 0x00, 0x00, 0x00, 0x20, 0x00, 0x00, 0x00,
  0x01, 0x00, 0x00, 0x00, 0x40, 0x00, 0x00, 0x00, 0x02, 0x00, 0x00, 0x00,
  0xff, 0xff, 0xff, 0xff, 0x28, 0x00, 0x00, 0x00, 0x04, 0x00, 0x04, 0x00,
  0x04, 0x00, 0x00, 0x00, 0x20, 0x00, 0x00, 0x00, 0x73, 0x65, 0x72, 0x76,
  0x69, 0x6e, 0x67, 0x5f, 0x64, 0x65, 0x66, 0x61, 0x75, 0x6c, 0x74, 0x5f,
  0x6b, 0x65, 0x72, 0x61, 0x73, 0x5f, 0x74, 0x65, 0x6e, 0x73, 0x6f, 0x72,
  0x5f, 0x33, 0x3a, 0x30, 0x00, 0x00, 0x00, 0x00, 0x02, 0x00, 0x00, 0x00,
  0x01, 0x00, 0x00, 0x00, 0x28, 0x00, 0x00, 0x00, 0x01, 0x00, 0x00, 0x00,
  0x10, 0x00, 0x00, 0x00, 0x0c, 0x00, 0x0c, 0x00, 0x0b, 0x00, 0x00, 0x00,
  0x00, 0x00, 0x04, 0x00, 0x0c, 0x00, 0x00, 0x00, 0x09, 0x00, 0x00, 0x00,
  0x00, 0x00, 0x00, 0x09
};
const int g_model_len = 9016;
