#include "model_data.h"

alignas(8) const unsigned char g_model[] = {
  0x1c, 0x00, 0x00, 0x00, 0x54, 0x46, 0x4c, 0x33, 0x14, 0x00, 0x20, 0x00,
  0x1c, 0x00, 0x18, 0x00, 0x14, 0x00, 0x10, 0x00, 0x0c, 0x00, 0x00, 0x00,
  0x08, 0x00, 0x04, 0x00, 0x14, 0x00, 0x00, 0x00, 0x1c, 0x00, 0x00, 0x00,
  0x98, 0x00, 0x00, 0x00, 0xf0, 0x00, 0x00, 0x00, 0x50, 0x11, 0x00, 0x00,
  0x60, 0x11, 0x00, 0x00, 0x04, 0x14, 0x00, 0x00, 0x03, 0x00, 0x00, 0x00,
  0x01, 0x00, 0x00, 0x00, 0x10, 0x00, 0x00, 0x00, 0x00, 0x00, 0x0a, 0x00,
  0x10, 0x00, 0x0c, 0x00, 0x08, 0x00, 0x04, 0x00, 0x0a, 0x00, 0x00, 0x00,
  0x0c, 0x00, 0x00, 0x00, 0x1c, 0x00, 0x00, 0x00, 0x3c, 0x00, 0x00, 0x00,
  0x0f, 0x00, 0x00, 0x00, 0x73, 0x65, 0x72, 0x76, 0x69, 0x6e, 0x67, 0x5f,
  0x64, 0x65, 0x66, 0x61, 0x75, 0x6c, 0x74, 0x00, 0x01, 0x00, 0x00, 0x00,
  0x04, 0x00, 0x00, 0x00, 0x90, 0xff, 0xff, 0xff, 0x03, 0x00, 0x00, 0x00,
  0x04, 0x00, 0x00, 0x00, 0x08, 0x00, 0x00, 0x00, 0x6f, 0x75, 0x74, 0x70,
  0x75, 0x74, 0x5f, 0x30, 0x00, 0x00, 0x00, 0x00, 0x01, 0x00, 0x00, 0x00,
  0x04, 0x00, 0x00, 0x00, 0x9e, 0xee, 0xff, 0xff, 0x04, 0x00, 0x00, 0x00,
  0x0e, 0x00, 0x00, 0x00, 0x6b, 0x65, 0x72, 0x61, 0x73, 0x5f, 0x74, 0x65,
  0x6e, 0x73, 0x6f, 0x72, 0x5f, 0x35, 0x00, 0x00, 0x02, 0x00, 0x00, 0x00,
  0x34, 0x00, 0x00, 0x00, 0x04, 0x00, 0x00, 0x00, 0xdc, 0xff, 0xff, 0xff,
  0x06, 0x00, 0x00, 0x00, 0x04, 0x00, 0x00, 0x00, 0x13, 0x00, 0x00, 0x00,
  0x43, 0x4f, 0x4e, 0x56, 0x45, 0x52, 0x53, 0x49, 0x4f, 0x4e, 0x5f, 0x4d,
  0x45, 0x54, 0x41, 0x44, 0x41, 0x54, 0x41, 0x00, 0x08, 0x00, 0x0c, 0x00,
  0x08, 0x00, 0x04, 0x00, 0x08, 0x00, 0x00, 0x00, 0x05, 0x00, 0x00, 0x00,
  0x04, 0x00, 0x00, 0x00, 0x13, 0x00, 0x00, 0x00, 0x6d, 0x69, 0x6e, 0x5f,
  0x72, 0x75, 0x6e, 0x74, 0x69, 0x6d, 0x65, 0x5f, 0x76, 0x65, 0x72, 0x73,
  0x69, 0x6f, 0x6e, 0x00, 0x07, 0x00, 0x00, 0x00, 0x5c, 0x10, 0x00, 0x00,
  0x54, 0x10, 0x00, 0x00, 0xa4, 0x00, 0x00, 0x00, 0x9c, 0x00, 0x00, 0x00,
  0x94, 0x00, 0x00, 0x00, 0x74, 0x00, 0x00, 0x00, 0x04, 0x00, 0x00, 0x00,
  0x36, 0xef, 0xff, 0xff, 0x04, 0x00, 0x00, 0x00, 0x60, 0x00, 0x00, 0x00,
  0x10, 0x00, 0x00, 0x00, 0x00, 0x00, 0x00, 0x00, 0x08, 0x00, 0x0e, 0x00,
  0x08, 0x00, 0x04, 0x00, 0x08, 0x00, 0x00, 0x00, 0x10, 0x00, 0x00, 0x00,
  0x24, 0x00, 0x00, 0x00, 0x00, 0x00, 0x06, 0x00, 0x08, 0x00, 0x04, 0x00,
  0x06, 0x00, 0x00, 0x00, 0x04, 0x00, 0x00, 0x00, 0x00, 0x00, 0x00, 0x00,
  0x0c, 0x00, 0x18, 0x00, 0x14, 0x00, 0x10, 0x00, 0x0c, 0x00, 0x04, 0x00,
  0x0c, 0x00, 0x00, 0x00, 0x81, 0x93, 0x8c, 0x43, 0x45, 0xfe, 0x85, 0x10,
  0x02, 0x00, 0x00, 0x00, 0x02, 0x00, 0x00, 0x00, 0x04, 0x00, 0x00, 0x00,
  0x06, 0x00, 0x00, 0x00, 0x32, 0x2e, 0x31, 0x37, 0x2e, 0x30, 0x00, 0x00,
  0xa2, 0xef, 0xff, 0xff, 0x04, 0x00, 0x00, 0x00, 0x10, 0x00, 0x00, 0x00,
  0x31, 0x2e, 0x35, 0x2e, 0x30, 0x00, 0x00, 0x00, 0x00, 0x00, 0x00, 0x00,
  0x00, 0x00, 0x00, 0x00, 0xc4, 0xed, 0xff, 0xff, 0xc8, 0xed, 0xff, 0xff,
  0xc6, 0xef, 0xff, 0xff, 0x04, 0x00, 0x00, 0x00, 0xa0, 0x0f, 0x00, 0x00,
  0x54, 0x98, 0xbd, 0x3d, 0x28, 0xce, 0x42, 0xbd, 0x68, 0x04, 0x21, 0x3e,
  0xae, 0x00, 0x2f, 0x3e, 0x82, 0x70, 0x83, 0xbe, 0xcc, 0x6e, 0xb5, 0x3d,
  0x80, 0x30, 0x6d, 0x3c, 0x92, 0xac, 0x01, 0xbe, 0x60, 0x0c, 0x01, 0x3e,
  0xf4, 0xbe, 0x92, 0x3e, 0xa8, 0x9e, 0x25, 0x3d, 0xe6, 0x7e, 0x89, 0xbe,
  0x80, 0x30, 0x13, 0x3b, 0xcc, 0x42, 0x8c, 0xbe, 0x7c, 0x35, 0x1b, 0x3e,
  0xb8, 0x04, 0x95, 0x3e, 0xab, 0x82, 0x82, 0xbe, 0x79, 0x89, 0x13, 0xbe,
  0xc0, 0x25, 0x2d, 0x3e, 0x81, 0x98, 0x42, 0xbe, 0xc6, 0x72, 0x8a, 0x3e,
  0x04, 0x7e, 0x7c, 0x3e, 0xf4, 0x84, 0x69, 0x3e, 0xda, 0xe7, 0x53, 0xbe,
  0x58, 0xfa, 0x5c, 0xbd, 0xba, 0xf4, 0x64, 0xbe, 0xa0, 0xed, 0xc2, 0x3c,
  0x00, 0xd9, 0x4b, 0x3d, 0x2c, 0x0f, 0x62, 0xbe, 0xc3, 0x7c, 0x6a, 0xbe,
  0x10, 0x8a, 0x0e, 0xbd, 0xca, 0xc1, 0x83, 0x3e, 0x00, 0x60, 0xaa, 0xbc,
  0xf4, 0x69, 0x7a, 0xbd, 0xe2, 0x25, 0x7a, 0xbe, 0x22, 0x48, 0xbb, 0xbd,
  0x00, 0xfa, 0x60, 0x3a, 0xf8, 0xdc, 0x2d, 0xbe, 0xfe, 0xe0, 0x8f, 0x3e,
  0xc8, 0x6a, 0x46, 0x3d, 0x20, 0xad, 0x5a, 0x3c, 0xb0, 0x54, 0x5b, 0x3d,
  0x99, 0x36, 0x6b, 0xbe, 0x56, 0x86, 0xd0, 0xbd, 0x48, 0x0e, 0xcd, 0x3d,
  0x8f, 0xd3, 0x79, 0xbe, 0x00, 0xf9, 0x1b, 0x3e, 0x80, 0xad, 0x35, 0x3b,
  0x20, 0xa8, 0xe4, 0xbc, 0x6d, 0x24, 0x73, 0xbe, 0xcb, 0x6e, 0x51, 0xbe,
  0x46, 0x1f, 0x1f, 0x3e, 0x60, 0xbe, 0x57, 0x3e, 0x58, 0x94, 0x8e, 0xbe,
  0x04, 0xc5, 0xe4, 0x3d, 0x2c, 0x31, 0x30, 0x3e, 0x9a, 0x09, 0xbd, 0xbd,
  0x29, 0x45, 0x89, 0xbe, 0x38, 0xfc, 0x6e, 0x3d, 0x3e, 0x37, 0x27, 0x3e,
  0x10, 0x2f, 0xd3, 0x3d, 0x10, 0x1b, 0x0f, 0x3e, 0xd8, 0xe8, 0xb8, 0x3d,
  0xe8, 0x02, 0x7d, 0xbe, 0xd8, 0x17, 0xe1, 0x3d, 0x05, 0xe1, 0x36, 0xbe,
  0xb4, 0x14, 0x92, 0x3e, 0x5e, 0xcf, 0x00, 0x3e, 0xac, 0x0c, 0xfe, 0x3d,
  0x2a, 0xff, 0x77, 0xbe, 0xb4, 0xc5, 0x5e, 0x3e, 0x5c, 0xa3, 0x8c, 0x3e,
  0x02, 0xd2, 0x37, 0x3e, 0x84, 0xca, 0x5d, 0x3e, 0xca, 0xaf, 0x87, 0x3e,
  0xd5, 0x37, 0x6a, 0xbe, 0x81, 0x9c, 0x81, 0xbe, 0x0e, 0xb3, 0x26, 0xbe,
  0xc0, 0xeb, 0x29, 0x3c, 0x48, 0x64, 0x32, 0xbe, 0xa0, 0x78, 0x40, 0x3e,
  0x3c, 0x72, 0x3d, 0xbe, 0x7e, 0x62, 0x96, 0xbd, 0x00, 0x10, 0x89, 0x3b,
  0xfc, 0x8b, 0xb2, 0x3d, 0xd0, 0xa4, 0x86, 0x3e, 0x40, 0x96, 0xaf, 0xbb,
  0x54, 0x2f, 0x4c, 0x3e, 0x72, 0x62, 0x27, 0xbe, 0x24, 0x52, 0x39, 0xbe,
  0x7d, 0x09, 0x91, 0xbe, 0x3c, 0x63, 0x87, 0x3e, 0x7e, 0xcb, 0x05, 0x3e,
  0xe4, 0x1f, 0x3d, 0x3e, 0xff, 0xb4, 0x85, 0xbe, 0x18, 0xf9, 0x2e, 0xbd,
  0x80, 0xd5, 0x9f, 0x3b, 0x20, 0x42, 0x02, 0xbd, 0x04, 0xe4, 0x39, 0xbd,
  0x2e, 0xd5, 0x34, 0xbe, 0x10, 0x4e, 0x6c, 0x3e, 0x68, 0xcc, 0x50, 0x3d,
  0x38, 0xfa, 0x3e, 0x3e, 0xac, 0xa2, 0x67, 0x3e, 0x90, 0xf1, 0x11, 0x3d,
  0x2c, 0x90, 0x91, 0xbe, 0x94, 0x58, 0x95, 0xbd, 0x80, 0xc7, 0x78, 0x3d,
  0x90, 0x56, 0x15, 0x3d, 0x00, 0x08, 0x74, 0xbe, 0xb0, 0x6b, 0x5a, 0x3e,
  0x90, 0x54, 0x54, 0x3d, 0xc7, 0x10, 0x23, 0xbe, 0x64, 0xe9, 0x45, 0xbd,
  0x34, 0xb5, 0x9d, 0x3d, 0x70, 0x60, 0xdf, 0xbc, 0x1a, 0x0d, 0x31, 0xbe,
  0x66, 0x7f, 0x08, 0x3e, 0x90, 0x18, 0xd9, 0xbc, 0x70, 0x1c, 0xc2, 0x3c,
  0xaa, 0xef, 0x65, 0xbe, 0x5b, 0x57, 0x21, 0xbe, 0x10, 0xda, 0x98, 0x3c,
  0xb0, 0x5a, 0x5d, 0x3e, 0x98, 0x8d, 0x6f, 0xbd, 0x2b, 0x89, 0x68, 0xbe,
  0x56, 0x25, 0x30, 0xbe, 0x60, 0x0c, 0x29, 0xbc, 0x32, 0x38, 0x95, 0x3e,
  0xf2, 0x95, 0x36, 0x3e, 0x8a, 0xc0, 0x42, 0xbe, 0x1c, 0x64, 0x70, 0xbd,
  0x9a, 0x79, 0x34, 0xbe, 0xc0, 0xef, 0xfe, 0x3b, 0x8a, 0x35, 0xd7, 0xbd,
  0xb8, 0xba, 0x6e, 0x3e, 0xa4, 0x2d, 0x7c, 0xbe, 0x32, 0x48, 0x00, 0x3e,
  0x0a, 0x66, 0x22, 0xbe, 0xca, 0x4a, 0xd4, 0xbd, 0x80, 0x7c, 0x88, 0x3e,
  0xf0, 0x10, 0x12, 0xbe, 0x28, 0xee, 0x0d, 0xbd, 0x58, 0xcd, 0x52, 0xbd,
  0xd2, 0x1c, 0x15, 0xbe, 0xfb, 0x45, 0x95, 0xbe, 0x52, 0xb6, 0x90, 0x3e,
  0x5c, 0xaa, 0x4e, 0xbe, 0xde, 0x62, 0x8e, 0xbe, 0x20, 0xa7, 0x09, 0x3d,
  0x2a, 0x89, 0xc7, 0xbd, 0x7c, 0x0b, 0xa0, 0xbd, 0x2f, 0x2b, 0x13, 0xbe,
  0x50, 0xaf, 0x51, 0xbd, 0x52, 0x4f, 0x33, 0xbe, 0xa6, 0x28, 0xb8, 0xbd,
  0xf8, 0x95, 0x53, 0x3d, 0xa8, 0xfa, 0x7c, 0x3e, 0xd8, 0x21, 0x64, 0x3e,
  0x6c, 0xde, 0x4c, 0xbe, 0xe1, 0x45, 0x1f, 0xbe, 0x12, 0x47, 0x19, 0x3e,
  0xc0, 0xe3, 0xf7, 0x3b, 0x4c, 0xa5, 0x30, 0xbe, 0x78, 0x33, 0x75, 0xbe,
  0xc0, 0x5f, 0x23, 0x3e, 0x9d, 0x9c, 0x0d, 0xbe, 0x0c, 0x9d, 0x77, 0xbe,
  0x90, 0x55, 0x3b, 0x3e, 0x8a, 0x04, 0x09, 0x3e, 0xca, 0xcb, 0x80, 0x3e,
  0xad, 0x4b, 0x6f, 0xbe, 0xfc, 0xe4, 0x43, 0x3e, 0x16, 0xf4, 0x3e, 0xbe,
  0xd8, 0x33, 0x60, 0x3e, 0xe4, 0x17, 0x44, 0xbd, 0xc8, 0xde, 0xec, 0xbd,
  0x8e, 0x9a, 0x34, 0xbe, 0xaa, 0x69, 0x91, 0xbe, 0x00, 0xd0, 0xab, 0xbb,
  0xfa, 0x56, 0x30, 0x3e, 0x44, 0x5f, 0x34, 0x3e, 0x0a, 0xa3, 0x76, 0xbe,
  0xec, 0x4b, 0x8f, 0x3e, 0x74, 0x9f, 0xb3, 0x3d, 0x68, 0xf7, 0xf4, 0x3d,
  0xb5, 0x2e, 0x91, 0xbe, 0x42, 0xc4, 0x95, 0xbe, 0x14, 0xf5, 0x2c, 0x3e,
  0x80, 0x8a, 0x8c, 0xbe, 0x8c, 0x5c, 0x87, 0x3e, 0xe0, 0x63, 0x5c, 0xbe,
  0x80, 0x69, 0x89, 0xbc, 0x82, 0x78, 0x6b, 0xbe, 0x90, 0x9f, 0x41, 0x3d,
  0x58, 0x37, 0x65, 0x3e, 0x5c, 0x1e, 0x93, 0x3e, 0x70, 0x05, 0xc1, 0x3c,
  0x1a, 0x1b, 0x21, 0x3e, 0x9b, 0x59, 0x1f, 0xbe, 0x0a, 0x00, 0x8e, 0xbe,
  0xae, 0xd0, 0x0c, 0x3e, 0x9c, 0xe7, 0x47, 0xbd, 0x80, 0x6d, 0x96, 0x3d,
  0x3c, 0xd3, 0xee, 0xbd, 0x60, 0x14, 0xe2, 0xbc, 0xb8, 0x6d, 0xd6, 0x3d,
  0x67, 0xc7, 0x34, 0xbe, 0x25, 0xc2, 0x05, 0xbe, 0x6c, 0xc6, 0x6e, 0x3e,
  0x90, 0xa3, 0x97, 0xbc, 0xf0, 0x87, 0x77, 0x3d, 0x94, 0x3d, 0x01, 0x3e,
  0xa8, 0x03, 0x23, 0xbd, 0x07, 0x85, 0x09, 0xbe, 0x59, 0xa3, 0x1b, 0xbe,
  0xb4, 0x48, 0x58, 0xbe, 0x08, 0xd0, 0x25, 0xbe, 0x5b, 0xb4, 0x95, 0xbe,
  0x96, 0xfe, 0x74, 0xbe, 0x60, 0x30, 0xf3, 0xbd, 0x08, 0xf6, 0x93, 0x3e,
  0xd0, 0xc1, 0x5c, 0x3e, 0xa8, 0x68, 0xe7, 0x3d, 0x4d, 0x3f, 0x2a, 0xbe,
  0xb4, 0x03, 0xf2, 0xbd, 0x96, 0xe8, 0xbd, 0xbd, 0x14, 0x18, 0xf2, 0x3d,
  0xa8, 0x60, 0x75, 0x3d, 0xc8, 0x22, 0x0c, 0x3d, 0xd6, 0xcc, 0x52, 0xbe,
  0x58, 0xee, 0xb4, 0x3d, 0x42, 0xe2, 0x8c, 0xbe, 0x74, 0xae, 0x4d, 0x3e,
  0xd0, 0x42, 0x87, 0xbc, 0x00, 0x64, 0xdb, 0x39, 0x04, 0xd2, 0x1e, 0x3e,
  0xee, 0x8d, 0x81, 0x3e, 0x98, 0xc8, 0xf2, 0x3d, 0x98, 0x08, 0x00, 0x3e,
  0x1d, 0x61, 0x58, 0xbe, 0x20, 0x4b, 0x7e, 0x3c, 0xe0, 0xd2, 0x9a, 0xbd,
  0x76, 0x69, 0xd4, 0xbd, 0x40, 0x2a, 0x1e, 0xbd, 0xfc, 0xd3, 0xc4, 0x3d,
  0xae, 0xf2, 0x3a, 0xbe, 0xfa, 0x29, 0x23, 0xbe, 0xd0, 0xf8, 0xaf, 0x3d,
  0x14, 0xf6, 0x72, 0x3e, 0xe8, 0x74, 0x82, 0x3d, 0xc8, 0x86, 0x7f, 0x3d,
  0xcf, 0xbd, 0x8a, 0xbe, 0x3e, 0xe4, 0x4c, 0x3e, 0xb3, 0x92, 0x81, 0xbe,
  0x3d, 0xaa, 0x00, 0xbe, 0xc4, 0xfd, 0xa6, 0xbd, 0xe0, 0xf4, 0x82, 0xbe,
  0x58, 0x3a, 0x6e, 0x3e, 0x78, 0x09, 0x3a, 0x3e, 0x7d, 0x2c, 0x66, 0xbe,
  0x04, 0x9e, 0xb3, 0x3d, 0xc8, 0x2c, 0xb5, 0x3d, 0x00, 0xbf, 0xda, 0x3d,
  0x08, 0xf5, 0x6b, 0x3e, 0x7f, 0x9a, 0x5c, 0xbe, 0xb2, 0x23, 0x7b, 0xbe,
  0xfb, 0x2e, 0x2a, 0xbe, 0x40, 0x63, 0x16, 0x3d, 0xcd, 0xac, 0x90, 0xbe,
  0x50, 0xd4, 0x70, 0xbd, 0x5c, 0x88, 0x64, 0x3e, 0x40, 0x47, 0xdb, 0xbd,
  0xd0, 0x05, 0x08, 0x3e, 0x84, 0xf7, 0x35, 0x3e, 0x78, 0x95, 0x68, 0x3e,
  0xe4, 0x39, 0x88, 0x3e, 0x24, 0xa8, 0x8c, 0x3e, 0x5c, 0xea, 0x94, 0x3e,
  0xa0, 0x2b, 0x2c, 0x3c, 0xc0, 0x1e, 0xb7, 0x3c, 0x40, 0xa9, 0xc4, 0x3b,
  0x78, 0xaf, 0x24, 0x3d, 0xe0, 0xc7, 0x1d, 0x3d, 0x0c, 0x62, 0xf2, 0xbd,
  0x10, 0xaf, 0x56, 0xbe, 0x9d, 0xfa, 0x88, 0xbe, 0x70, 0xed, 0x41, 0x3e,
  0x98, 0x06, 0x40, 0xbe, 0x5a, 0x62, 0x95, 0xbe, 0x60, 0x01, 0x5b, 0x3e,
  0x8c, 0xbc, 0x25, 0x3e, 0xb2, 0x05, 0xf4, 0xbd, 0x88, 0xd5, 0x46, 0x3e,
  0x2f, 0xe3, 0x7b, 0xbe, 0x20, 0x82, 0xef, 0x3d, 0x93, 0xde, 0x63, 0xbe,
  0x40, 0xd3, 0xeb, 0x3c, 0xe8, 0x4e, 0x46, 0xbe, 0xf8, 0x79, 0x8b, 0xbe,
  0x2a, 0xe3, 0x8d, 0xbe, 0xd4, 0xd8, 0x84, 0x3e, 0x34, 0xd7, 0xa5, 0x3d,
  0x8e, 0x90, 0x83, 0xbd, 0x38, 0xc6, 0xe9, 0xbd, 0x45, 0x0c, 0x8c, 0xbe,
  0xa8, 0x8e, 0x33, 0x3d, 0x52, 0xbd, 0xa6, 0xbd, 0x24, 0xf6, 0x53, 0xbd,
  0xdc, 0xf5, 0x9e, 0x3d, 0xa4, 0x52, 0xae, 0xbd, 0x50, 0x63, 0x60, 0xbd,
  0xb4, 0x23, 0x70, 0x3e, 0x60, 0xc3, 0xb0, 0x3d, 0x0d, 0xa2, 0x85, 0xbe,
  0x7c, 0x67, 0x7d, 0x3e, 0xb2, 0x4d, 0x8a, 0xbe, 0x08, 0x4b, 0xdd, 0x3d,
  0xb8, 0x38, 0x3b, 0x3d, 0xc4, 0xae, 0x83, 0x3e, 0x48, 0x40, 0xb1, 0xbd,
  0xe8, 0x9e, 0x60, 0xbe, 0x36, 0xdf, 0x94, 0x3e, 0x98, 0xac, 0x30, 0x3e,
  0xa2, 0x88, 0xf4, 0xbd, 0x4c, 0x37, 0x25, 0x3e, 0x2b, 0x4f, 0x1a, 0xbe,
  0x2c, 0xef, 0x3d, 0xbe, 0xa8, 0xe3, 0x70, 0x3e, 0x5c, 0x67, 0x8d, 0x3e,
  0x44, 0x18, 0x87, 0xbd, 0x78, 0x2e, 0x15, 0xbd, 0x8c, 0x11, 0x8b, 0x3e,
  0x60, 0x46, 0x5f, 0xbc, 0xc0, 0x5e, 0x97, 0x3d, 0x86, 0x5b, 0xf3, 0xbd,
  0x08, 0xc4, 0x11, 0x3d, 0x06, 0xcc, 0x35, 0x3e, 0x1e, 0xb4, 0xe8, 0xbd,
  0xc5, 0xe5, 0x05, 0xbe, 0xae, 0xa7, 0xc3, 0xbd, 0x1e, 0xb8, 0xfe, 0xbd,
  0x0d, 0xc9, 0x89, 0xbe, 0x98, 0x92, 0x45, 0x3d, 0xfc, 0x92, 0xb1, 0xbd,
  0x86, 0x7d, 0xdf, 0xbd, 0x63, 0x40, 0x75, 0xbe, 0x80, 0xf4, 0xc3, 0xbd,
  0xb2, 0xae, 0x0b, 0x3e, 0x1a, 0x2b, 0x16, 0x3e, 0x60, 0x17, 0x1c, 0xbe,
  0xf4, 0xc6, 0xbd, 0x3d, 0xd4, 0x7b, 0x38, 0x3e, 0x20, 0xa6, 0x9a, 0xbc,
  0x32, 0xc2, 0x17, 0x3e, 0xa0, 0x44, 0x22, 0x3e, 0x9c, 0xff, 0x76, 0xbe,
  0x20, 0x9f, 0x03, 0x3e, 0xd4, 0x76, 0x39, 0x3e, 0x20, 0x2c, 0x84, 0xbd,
  0xe0, 0xd7, 0x17, 0xbd, 0x3c, 0x02, 0x83, 0xbe, 0xd6, 0x64, 0x45, 0xbe,
  0x6c, 0x2a, 0x12, 0x3e, 0xa0, 0x66, 0x5d, 0x3e, 0x1c, 0xc3, 0x59, 0xbe,
  0xe0, 0xfb, 0xaa, 0xbc, 0xce, 0x6b, 0x83, 0xbe, 0x00, 0x09, 0xef, 0xbb,
  0x9c, 0xd0, 0x28, 0x3e, 0x64, 0x67, 0x7a, 0xbd, 0xec, 0x45, 0x6c, 0x3e,
  0x5a, 0x79, 0x94, 0x3e, 0x22, 0xaa, 0x3d, 0x3e, 0xee, 0x39, 0x0b, 0x3e,
  0x16, 0x89, 0x51, 0xbe, 0x00, 0x24, 0x1b, 0x3d, 0x44, 0xcc, 0x35, 0xbd,
  0x54, 0xca, 0x39, 0xbd, 0x51, 0x65, 0x35, 0xbe, 0xe8, 0xfc, 0x84, 0x3d,
  0x00, 0xb2, 0x30, 0x3b, 0x20, 0xcc, 0x2d, 0x3d, 0x32, 0xdc, 0x4b, 0x3e,
  0x5c, 0x71, 0xa8, 0x3d, 0xe0, 0xd3, 0x59, 0x3c, 0x6c, 0xa2, 0x46, 0xbe,
  0x2c, 0xdf, 0xde, 0x3d, 0xa8, 0xb5, 0xd4, 0x3d, 0x4e, 0x7e, 0x04, 0xbe,
  0x97, 0x62, 0x92, 0xbe, 0x40, 0xcf, 0x23, 0x3c, 0xa0, 0xf5, 0x6b, 0x3e,
  0xd8, 0x14, 0x7c, 0xbe, 0xf4, 0x5b, 0xec, 0xbd, 0x73, 0xb7, 0x20, 0xbe,
  0x54, 0x21, 0x08, 0x3e, 0x50, 0xf0, 0x94, 0x3d, 0x40, 0x08, 0xb9, 0xbd,
  0x16, 0x71, 0x50, 0xbe, 0x80, 0x64, 0xe8, 0x3c, 0x3c, 0x7d, 0x0f, 0x3e,
  0x8c, 0x62, 0xb4, 0xbd, 0x40, 0xd9, 0xbf, 0x3b, 0xb4, 0x84, 0x3e, 0x3e,
  0xb0, 0x03, 0x44, 0xbd, 0xe0, 0xe6, 0x1c, 0x3d, 0x04, 0x41, 0x93, 0xbe,
  0xd6, 0xb3, 0x2d, 0xbe, 0xce, 0x12, 0x24, 0x3e, 0xe5, 0x6b, 0x91, 0xbe,
  0xd2, 0x0f, 0x79, 0xbe, 0xde, 0x42, 0xe2, 0xbd, 0x80, 0x4b, 0x84, 0x3e,
  0x51, 0xe7, 0x83, 0xbe, 0x34, 0x4b, 0x3f, 0x3e, 0x10, 0x04, 0x8b, 0x3e,
  0x7e, 0x4d, 0x05, 0x3e, 0xf8, 0x62, 0xa1, 0x3d, 0xc2, 0x54, 0x97, 0xbd,
  0x32, 0xb0, 0x8b, 0x3e, 0xa1, 0xac, 0x6e, 0xbe, 0x80, 0xb3, 0x4e, 0x3c,
  0x18, 0xe9, 0xc9, 0xbd, 0x29, 0x59, 0x82, 0xbe, 0xb8, 0x62, 0x2a, 0x3d,
  0x40, 0x72, 0xd7, 0x3b, 0xa6, 0x61, 0x04, 0x3e, 0x2d, 0x4c, 0x80, 0xbe,
  0xce, 0x12, 0x87, 0xbe, 0x64, 0x7a, 0xed, 0xbd, 0xf4, 0x7a, 0x81, 0x3d,
  0xf8, 0xbd, 0x8b, 0x3e, 0xa8, 0x74, 0x12, 0x3d, 0xbc, 0xe2, 0x5a, 0x3e,
  0x91, 0x45, 0x57, 0xbe, 0x30, 0xa1, 0x1c, 0x3d, 0x40, 0xe0, 0xc0, 0x3c,
  0x21, 0xf3, 0x21, 0xbe, 0x14, 0xbe, 0x4d, 0xbe, 0x04, 0x69, 0x83, 0xbe,
  0xac, 0x42, 0x57, 0x3e, 0xed, 0x5d, 0x92, 0xbe, 0x40, 0x89, 0x0e, 0x3d,
  0x10, 0x51, 0xaf, 0xbc, 0x65, 0x14, 0x16, 0xbe, 0x64, 0xd2, 0xeb, 0x3d,
  0x2e, 0x8d, 0x1c, 0xbe, 0xe8, 0x8d, 0x5a, 0x3e, 0x47, 0xe7, 0x24, 0xbe,
  0x77, 0x40, 0x0f, 0xbe, 0xa8, 0x32, 0x21, 0xbd, 0x26, 0x3f, 0x35, 0x3e,
  0xc2, 0x4a, 0x30, 0x3e, 0x16, 0xc7, 0x05, 0xbe, 0x27, 0x72, 0x34, 0xbe,
  0x90, 0x23, 0x1a, 0xbe, 0x48, 0x94, 0x04, 0xbe, 0x00, 0x46, 0xee, 0xbb,
  0xf4, 0x64, 0xd1, 0x3d, 0x64, 0xe5, 0x34, 0x3e, 0xbd, 0x1c, 0x81, 0xbe,
  0x58, 0x90, 0x62, 0x3e, 0x60, 0x54, 0x2f, 0x3e, 0x7a, 0xbb, 0x00, 0x3e,
  0x7a, 0x4f, 0x0e, 0x3e, 0x20, 0x9f, 0x23, 0xbd, 0x2c, 0x75, 0x7e, 0x3e,
  0x86, 0x93, 0x83, 0x3e, 0x10, 0xd1, 0xb8, 0xbd, 0x1c, 0xe9, 0x1a, 0x3e,
  0x14, 0x6d, 0x71, 0x3e, 0xb8, 0xab, 0x85, 0x3e, 0xa2, 0x81, 0x92, 0xbe,
  0xbe, 0x77, 0x25, 0x3e, 0xe5, 0x04, 0x88, 0xbe, 0x96, 0x04, 0x10, 0xbe,
  0x50, 0x23, 0x6c, 0x3e, 0x24, 0x67, 0x7b, 0x3e, 0xc2, 0x6d, 0x30, 0x3e,
  0x08, 0x29, 0x7a, 0xbd, 0xf0, 0x84, 0x6e, 0x3d, 0x74, 0x6e, 0xd2, 0x3d,
  0xbc, 0x37, 0x57, 0xbd, 0x50, 0xf8, 0x82, 0x3c, 0xc4, 0x59, 0x89, 0x3e,
  0x5c, 0x5b, 0x2b, 0x3e, 0x7c, 0x24, 0x83, 0xbd, 0xc8, 0x38, 0x94, 0x3d,
  0x7c, 0xfb, 0x80, 0x3e, 0x32, 0x80, 0x3f, 0x3e, 0xa4, 0x5f, 0xa5, 0xbd,
  0x8f, 0x21, 0x89, 0xbe, 0x82, 0x6a, 0xdd, 0xbd, 0x20, 0xf8, 0x55, 0x3e,
  0x9c, 0x06, 0x4e, 0xbe, 0xa8, 0x80, 0x84, 0xbe, 0xcd, 0xfc, 0x81, 0xbe,
  0xa8, 0x0a, 0x20, 0x3e, 0x94, 0xf8, 0xfd, 0xbd, 0xa9, 0xf2, 0x18, 0xbe,
  0xa4, 0x47, 0x84, 0x3d, 0x20, 0xf7, 0xcb, 0x3c, 0x62, 0x8e, 0x34, 0xbe,
  0x28, 0xc1, 0x3d, 0x3e, 0x08, 0x5f, 0x85, 0x3e, 0x34, 0x0e, 0xf6, 0xbd,
  0x04, 0xf5, 0x6a, 0x3e, 0x1e, 0x29, 0xb9, 0xbd, 0xd2, 0x4a, 0xed, 0xbd,
  0x0a, 0xe6, 0x08, 0x3e, 0x00, 0x35, 0xb1, 0xba, 0x25, 0xd5, 0x14, 0xbe,
  0x46, 0x1b, 0x3c, 0xbe, 0x28, 0xe0, 0x59, 0x3e, 0x38, 0x30, 0xec, 0xbd,
  0x00, 0x06, 0x79, 0x3b, 0x98, 0x46, 0x52, 0x3d, 0x61, 0x38, 0x8f, 0xbe,
  0x00, 0xa5, 0xf4, 0x3d, 0x4c, 0x81, 0xb7, 0x3d, 0x10, 0xdd, 0x1f, 0xbd,
  0x96, 0x0e, 0x2f, 0x3e, 0x0c, 0xd8, 0x0b, 0x3e, 0x38, 0x45, 0x02, 0xbd,
  0x9e, 0x34, 0x34, 0x3e, 0x57, 0xf6, 0x26, 0xbe, 0xf7, 0xbc, 0x29, 0xbe,
  0xf7, 0x78, 0x5d, 0xbe, 0x30, 0x37, 0x07, 0x3e, 0xab, 0x87, 0x58, 0xbe,
  0x80, 0x8f, 0xe2, 0x3c, 0x68, 0x1f, 0xae, 0x3d, 0xac, 0x10, 0x79, 0x3e,
  0x20, 0x88, 0xe4, 0xbd, 0xa4, 0xc1, 0x10, 0xbe, 0xe7, 0xa9, 0x68, 0xbe,
  0x5e, 0x90, 0x08, 0x3e, 0x80, 0x27, 0x54, 0x3c, 0xaa, 0xc0, 0xad, 0xbd,
  0x5c, 0x58, 0x39, 0xbd, 0xbc, 0x22, 0x6c, 0x3e, 0x76, 0x45, 0x84, 0xbe,
  0x28, 0x78, 0x2f, 0x3d, 0xea, 0xa4, 0xd9, 0xbd, 0x78, 0x13, 0x23, 0xbe,
  0xde, 0xf5, 0xb5, 0xbd, 0xf8, 0x3d, 0x8a, 0x3d, 0x42, 0xa9, 0xa3, 0xbd,
  0x24, 0xbd, 0x86, 0xbe, 0x68, 0xe3, 0xd3, 0x3d, 0x7e, 0x48, 0x8f, 0x3e,
  0x32, 0xc2, 0x93, 0x3e, 0xf6, 0x50, 0x0a, 0x3e, 0x58, 0xe7, 0xa9, 0xbd,
  0xae, 0x59, 0x15, 0x3e, 0x4c, 0xe4, 0xb6, 0xbd, 0xf8, 0xef, 0xdd, 0x3d,
  0x3a, 0xa7, 0x3b, 0xbe, 0xff, 0x96, 0x89, 0xbe, 0xbb, 0x1a, 0x57, 0xbe,
  0xc8, 0xbb, 0x3c, 0xbe, 0xfa, 0xcc, 0x4f, 0x3e, 0xfc, 0x5d, 0x74, 0x3e,
  0xfe, 0x7f, 0xc5, 0xbd, 0x93, 0x23, 0x82, 0xbe, 0x1e, 0xe0, 0x92, 0x3e,
  0x22, 0x59, 0x1f, 0x3e, 0xbe, 0x82, 0x85, 0xbe, 0xaa, 0xb8, 0x45, 0xbe,
  0xd8, 0x32, 0x12, 0xbe, 0xc0, 0x45, 0x93, 0x3c, 0x80, 0x4b, 0x3a, 0xbd,
  0x3a, 0x95, 0x48, 0xbe, 0x50, 0x5e, 0x48, 0x3e, 0xe8, 0x67, 0x1a, 0xbd,
  0x12, 0x1d, 0x82, 0x3e, 0xf0, 0x9b, 0xe2, 0xbc, 0x3b, 0x4f, 0x1d, 0xbe,
  0x93, 0x7c, 0x15, 0xbe, 0x40, 0xbc, 0x86, 0x3e, 0x58, 0x95, 0x90, 0x3d,
  0xcb, 0xbf, 0x90, 0xbe, 0x38, 0x74, 0x25, 0x3d, 0x20, 0x9f, 0x84, 0x3e,
  0x4f, 0x15, 0x26, 0xbe, 0x5c, 0x5f, 0x68, 0x3e, 0x46, 0x33, 0xaf, 0xbd,
  0x58, 0x48, 0x3a, 0x3d, 0x80, 0x51, 0xe6, 0x3d, 0x00, 0x2c, 0x85, 0x3b,
  0xc0, 0x17, 0x2f, 0x3e, 0x90, 0x36, 0x7d, 0x3e, 0x08, 0x83, 0x1f, 0xbe,
  0xe0, 0x53, 0xfa, 0x3c, 0x39, 0x92, 0x90, 0xbe, 0x30, 0xb5, 0x64, 0x3d,
  0xe8, 0x75, 0x97, 0x3d, 0x5c, 0x91, 0x73, 0x3e, 0xbe, 0xc7, 0x82, 0xbe,
  0x3a, 0xc0, 0xb8, 0xbd, 0x64, 0xf5, 0xa5, 0x3d, 0xf6, 0x31, 0xa6, 0xbd,
  0x90, 0xce, 0xd0, 0x3c, 0xd0, 0x61, 0x91, 0x3e, 0x84, 0xf2, 0x87, 0xbe,
  0xef, 0x5f, 0x4f, 0xbe, 0x0a, 0xb4, 0x15, 0x3e, 0x8c, 0xc1, 0x0a, 0x3e,
  0x56, 0x0b, 0x32, 0x3e, 0x86, 0x9b, 0x80, 0x3e, 0xc0, 0xd3, 0xee, 0x3c,
  0x90, 0x32, 0x20, 0xbd, 0xac, 0x77, 0xc7, 0x3d, 0x92, 0xe6, 0x89, 0x3e,
  0xd8, 0xd6, 0x4f, 0x3d, 0x82, 0xd3, 0xe5, 0xbd, 0x14, 0x37, 0xce, 0x3d,
  0xc8, 0x2e, 0x0e, 0x3e, 0xd0, 0x4d, 0xe4, 0xbc, 0x02, 0x34, 0xc2, 0xbd,
  0x80, 0x7a, 0x21, 0xbc, 0xb4, 0x52, 0xb3, 0x3d, 0x48, 0x03, 0x64, 0xbe,
  0xb8, 0xe1, 0x9f, 0x3d, 0x5c, 0xb1, 0x51, 0x3e, 0x9c, 0x38, 0xdf, 0xbd,
  0xe8, 0xd7, 0x89, 0x3d, 0x98, 0x4f, 0xab, 0x3d, 0x2c, 0x79, 0xd3, 0x3d,
  0x28, 0x97, 0x33, 0x3d, 0x6f, 0x24, 0x88, 0xbe, 0xc6, 0x33, 0x3e, 0x3e,
  0x74, 0xee, 0xa4, 0xbd, 0x70, 0xab, 0x4c, 0xbd, 0x00, 0x0a, 0x65, 0xbd,
  0xc6, 0x30, 0x91, 0x3e, 0x9e, 0xfc, 0x94, 0xbd, 0xf4, 0x50, 0xab, 0x3d,
  0x64, 0xf8, 0x68, 0x3e, 0x4c, 0x37, 0xee, 0x3d, 0xef, 0xc5, 0x78, 0xbe,
  0x6c, 0x75, 0x8e, 0xbe, 0x53, 0x70, 0x18, 0xbe, 0x95, 0xa8, 0x1f, 0xbe,
  0xac, 0x0c, 0x5b, 0x3e, 0x96, 0x39, 0x3b, 0x3e, 0x40, 0x08, 0x47, 0x3c,
  0xf8, 0x26, 0xb0, 0xbd, 0x28, 0x45, 0x58, 0x3d, 0x18, 0xb9, 0x78, 0x3e,
  0x70, 0x94, 0xfa, 0xbd, 0x74, 0x97, 0xb1, 0xbd, 0x28, 0x6d, 0x2a, 0xbe,
  0xb0, 0x73, 0xf7, 0xbc, 0xee, 0x37, 0x82, 0x3e, 0x54, 0x04, 0xd9, 0x3d,
  0xbc, 0x29, 0xa1, 0xbd, 0x00, 0x9e, 0x27, 0xbd, 0x84, 0x32, 0xb6, 0x3d,
  0x38, 0xf7, 0x16, 0xbe, 0xfc, 0xfb, 0x33, 0xbe, 0x74, 0x8d, 0x85, 0x3e,
  0xfc, 0x07, 0x74, 0x3e, 0xf3, 0x74, 0x60, 0xbe, 0x00, 0x14, 0x7d, 0x3a,
  0xc0, 0x2b, 0x49, 0x3e, 0x3e, 0xaf, 0x1f, 0xbe, 0xb8, 0xed, 0xb8, 0xbd,
  0x48, 0x5b, 0x8a, 0xbe, 0x0c, 0x53, 0x75, 0xbd, 0xd0, 0x6a, 0x44, 0xbe,
  0x30, 0x43, 0xc5, 0xbc, 0xac, 0xa1, 0xb0, 0x3d, 0x7c, 0x73, 0x36, 0xbe,
  0x44, 0x67, 0x9c, 0x3d, 0x69, 0x00, 0x3a, 0xbe, 0x28, 0x30, 0xab, 0xbd,
  0x96, 0x67, 0x43, 0xbe, 0x64, 0xde, 0x43, 0x3e, 0x52, 0xe7, 0x0a, 0x3e,
  0x0a, 0x52, 0x88, 0xbd, 0x0c, 0x2d, 0x45, 0x3e, 0xb0, 0x91, 0x87, 0x3e,
  0x50, 0xb9, 0x73, 0x3d, 0x70, 0x8a, 0xef, 0x3c, 0xb8, 0x70, 0x9a, 0x3d,
  0x61, 0xc8, 0x59, 0xbe, 0x98, 0xd3, 0x00, 0x3e, 0x00, 0x08, 0xad, 0x39,
  0x34, 0x57, 0x1a, 0x3e, 0xd0, 0xad, 0x5e, 0x3e, 0xb0, 0x02, 0x65, 0x3d,
  0x72, 0x32, 0x41, 0x3e, 0x02, 0x54, 0x87, 0xbe, 0x64, 0x64, 0x71, 0x3e,
  0x3e, 0x1c, 0x8c, 0x3e, 0xa1, 0x52, 0x75, 0xbe, 0xe6, 0xca, 0x8a, 0x3e,
  0xae, 0xc6, 0x95, 0xbe, 0xd2, 0x8d, 0x1c, 0x3e, 0x15, 0x6c, 0x73, 0xbe,
  0xa6, 0x6c, 0x53, 0xbe, 0x80, 0xb4, 0x21, 0x3c, 0xd8, 0x75, 0x0b, 0x3d,
  0xe6, 0x96, 0x86, 0xbd, 0x48, 0x66, 0x21, 0xbd, 0x8c, 0xd4, 0xb0, 0x3d,
  0x18, 0xca, 0x94, 0xbe, 0xa0, 0x15, 0x3f, 0xbd, 0xa6, 0x03, 0x30, 0xbe,
  0x68, 0x26, 0x08, 0xbd, 0xf8, 0x35, 0x6c, 0x3e, 0xce, 0xa2, 0x4a, 0x3e,
  0xdf, 0xa4, 0x7c, 0xbe, 0x34, 0xa7, 0x8b, 0x3e, 0x48, 0x2d, 0x87, 0x3e,
  0xc6, 0x19, 0x52, 0x3e, 0x92, 0xb3, 0x3c, 0x3e, 0x42, 0x9f, 0x83, 0x3e,
  0xa2, 0xf4, 0x83, 0x3e, 0x60, 0x41, 0x89, 0x3d, 0x60, 0x87, 0xca, 0x3d,
  0xc0, 0xa8, 0xa4, 0x3c, 0x00, 0x91, 0xd3, 0xbc, 0x7c, 0x43, 0x45, 0x3e,
  0x74, 0xa3, 0x6d, 0x3e, 0xf0, 0xe3, 0x88, 0x3e, 0x44, 0xe3, 0x5c, 0x3e,
  0x8e, 0x5b, 0x81, 0x3e, 0xa0, 0xb0, 0xd8, 0xbc, 0x05, 0xef, 0x86, 0xbe,
  0x99, 0xb2, 0x40, 0xbe, 0x0a, 0xcd, 0x50, 0x3e, 0x22, 0xcf, 0x4f, 0x3e,
  0x20, 0x17, 0xc7, 0x3d, 0x0c, 0x3f, 0x80, 0xbe, 0x60, 0x4d, 0x20, 0xbe,
  0xf4, 0xf9, 0xaf, 0xbd, 0x80, 0x04, 0xff, 0x3d, 0x68, 0xdb, 0x79, 0x3e,
  0xf0, 0xf9, 0x99, 0x3d, 0x56, 0xe6, 0x2b, 0x3e, 0x00, 0x61, 0x5c, 0x3d,
  0xc0, 0x37, 0xce, 0x3b, 0x38, 0x57, 0x2e, 0x3e, 0x32, 0xae, 0x90, 0x3e,
  0x7c, 0x8e, 0x39, 0x3e, 0xee, 0x44, 0x41, 0xbe, 0xa0, 0xad, 0x04, 0xbe,
  0x56, 0x56, 0x52, 0x3e, 0xc0, 0x40, 0x83, 0x3c, 0x0d, 0x85, 0x7c, 0xbe,
  0x6e, 0xc6, 0x4e, 0x3e, 0x98, 0xc1, 0x0e, 0x3d, 0x8a, 0x14, 0x94, 0xbe,
  0x9c, 0x95, 0xce, 0x3d, 0x1b, 0xd8, 0x62, 0xbe, 0x2c, 0xb1, 0x64, 0x3e,
  0x20, 0x90, 0x34, 0x3e, 0xb8, 0xb2, 0x15, 0xbe, 0xc4, 0x6e, 0x20, 0x3e,
  0x20, 0xa2, 0xb4, 0xbc, 0xb0, 0x68, 0xd6, 0x3c, 0xfc, 0xd7, 0xcc, 0x3d,
  0x46, 0x14, 0x81, 0x3e, 0xfa, 0xf3, 0xc4, 0xbd, 0x32, 0x7f, 0xb0, 0xbd,
  0x36, 0x7e, 0x50, 0xbe, 0x84, 0xe8, 0xf9, 0x3d, 0x40, 0xc6, 0x7f, 0x3d,
  0xe8, 0x82, 0x0d, 0x3e, 0x00, 0x59, 0xb1, 0x3c, 0x98, 0xe5, 0x5a, 0x3e,
  0xc0, 0x66, 0x62, 0xbe, 0x80, 0xe8, 0x4f, 0x3b, 0xc0, 0xc7, 0x9e, 0x3d,
  0xe8, 0x1f, 0xfb, 0xbd, 0x8d, 0x3b, 0x08, 0xbe, 0x68, 0x89, 0xc8, 0x3d,
  0xee, 0x0d, 0xd0, 0xbd, 0xec, 0xf2, 0xbb, 0x3d, 0x68, 0x81, 0xbb, 0xbd,
  0x1e, 0x5b, 0x88, 0xbe, 0xa4, 0x53, 0xf8, 0x3d, 0x68, 0x3b, 0x28, 0xbe,
  0xb8, 0xa7, 0x33, 0x3e, 0x02, 0x48, 0x5c, 0xbe, 0x6c, 0xd2, 0x62, 0x3e,
  0xd1, 0x37, 0x4e, 0xbe, 0x0f, 0xf1, 0x90, 0xbe, 0x30, 0x39, 0x5c, 0xbd,
  0xd8, 0x22, 0xdb, 0x3d, 0x26, 0xe5, 0x09, 0x3e, 0x9d, 0x5a, 0x90, 0xbe,
  0xd0, 0xca, 0xa3, 0x3c, 0x80, 0xc8, 0x71, 0x3e, 0xe0, 0xa2, 0x19, 0x3e,
  0x6e, 0xd8, 0xc3, 0xbd, 0x1a, 0xb5, 0x78, 0xbe, 0x64, 0x52, 0x96, 0xbd,
  0xe0, 0x36, 0x89, 0x3e, 0x18, 0x6e, 0x66, 0x3d, 0x6a, 0xae, 0x39, 0xbe,
  0x36, 0x7a, 0x3f, 0x3e, 0x6c, 0xb9, 0xbc, 0xbd, 0xde, 0x5b, 0x16, 0xbe,
  0x30, 0x8f, 0x44, 0x3d, 0xa0, 0xd2, 0x70, 0xbc, 0xd0, 0x1e, 0x4d, 0xbe,
  0xd2, 0x83, 0x8f, 0xbd, 0x7c, 0x82, 0x43, 0xbe, 0x62, 0xa5, 0x50, 0x3e,
  0x8a, 0xb7, 0x24, 0xbe, 0xa0, 0x2a, 0x17, 0x3c, 0x10, 0xa6, 0x12, 0x3e,
  0x7c, 0x23, 0x42, 0xbe, 0xd0, 0xd2, 0x2f, 0xbe, 0x14, 0x8e, 0x63, 0xbe,
  0xd1, 0x1a, 0x8f, 0xbe, 0xa0, 0x7f, 0x3f, 0xbe, 0xec, 0x08, 0x9f, 0x3d,
  0x63, 0xf3, 0x82, 0xbe, 0x80, 0x72, 0x8d, 0x3c, 0x20, 0x3c, 0x5f, 0xbd,
  0x90, 0xcf, 0x20, 0xbd, 0x8e, 0x4d, 0x32, 0xbe, 0x4c, 0x0c, 0x47, 0x3e,
  0x52, 0xb1, 0x16, 0xbe, 0x1c, 0x2d, 0x3c, 0xbd, 0xbe, 0x1d, 0x8c, 0xbd,
  0xe0, 0x29, 0x11, 0xbd, 0xb0, 0x7a, 0xe1, 0xbc, 0xe8, 0x66, 0x23, 0x3d,
  0xbe, 0x5f, 0x72, 0xbe, 0xae, 0x38, 0x26, 0x3e, 0x2a, 0x6d, 0xd7, 0xbd,
  0x44, 0xc1, 0x11, 0xbe, 0x90, 0x60, 0x99, 0xbd, 0x19, 0x1c, 0x85, 0xbe,
  0x5c, 0xa4, 0x72, 0x3e, 0xe8, 0x7a, 0x31, 0x3e, 0x6c, 0xc8, 0x4c, 0xbd,
  0xbc, 0x77, 0x8c, 0x3d, 0x66, 0x05, 0x27, 0x3e, 0x74, 0x14, 0x8c, 0xbd,
  0x82, 0x1f, 0x2d, 0xbe, 0x6e, 0x91, 0x83, 0x3e, 0xa6, 0x3d, 0x89, 0xbe,
  0xb0, 0x17, 0x34, 0x3e, 0x73, 0x13, 0x35, 0xbe, 0x17, 0xa3, 0x31, 0xbe,
  0x3a, 0xbf, 0x1a, 0x3e, 0x60, 0x30, 0x89, 0xbc, 0xb8, 0xcc, 0x43, 0xbe,
  0x10, 0x04, 0x23, 0x3e, 0x1a, 0x81, 0x16, 0xbe, 0xe9, 0x38, 0x09, 0xbe,
  0xca, 0x25, 0x80, 0x3e, 0xa8, 0x4c, 0xdc, 0xbd, 0xd0, 0x1a, 0xa2, 0xbc,
  0x68, 0x0e, 0x7f, 0x3e, 0xc0, 0xbf, 0xa0, 0xbb, 0x9a, 0x33, 0x8d, 0x3e,
  0xba, 0x06, 0xbc, 0xbd, 0x1b, 0x91, 0x0d, 0xbe, 0x2a, 0xca, 0x9a, 0xbd,
  0x90, 0x60, 0x21, 0x3e, 0xd8, 0xcc, 0x51, 0xbe, 0x6c, 0x9b, 0xd3, 0x3d,
  0x20, 0x37, 0xf9, 0xbc, 0x00, 0xf0, 0x7b, 0xb9, 0x73, 0x03, 0x0e, 0xbe,
  0x0c, 0x68, 0x9b, 0xbd, 0x73, 0xe5, 0x10, 0xbe, 0xf4, 0xeb, 0x47, 0xbe,
  0x80, 0xe6, 0x8c, 0x3b, 0x00, 0x19, 0x55, 0x3d, 0x80, 0x37, 0x13, 0x3b,
  0x1e, 0x4d, 0x8d, 0xbe, 0xc0, 0x22, 0x6b, 0x3d, 0x90, 0xf8, 0xdf, 0x3d,
  0x4a, 0x39, 0x39, 0xbe, 0x5a, 0x4e, 0xaf, 0xbd, 0x2c, 0x47, 0xdc, 0x3d,
  0x00, 0x49, 0x3a, 0x3c, 0xec, 0xfd, 0x95, 0x3d, 0xc0, 0xa6, 0x54, 0x3e,
  0x10, 0x28, 0x01, 0x3d, 0xf8, 0x09, 0x2b, 0x3d, 0x06, 0x56, 0xd0, 0xbd,
  0x10, 0x57, 0x6f, 0x3e, 0x5e, 0x9d, 0x74, 0xbe, 0x28, 0xff, 0xf6, 0x3d,
  0x08, 0xec, 0x4c, 0xbe, 0x80, 0x7f, 0xcb, 0xbb, 0x50, 0x96, 0x78, 0x3e,
  0x96, 0x1a, 0x85, 0x3e, 0x60, 0x16, 0xc5, 0xbd, 0x61, 0xf1, 0x0e, 0xbe,
  0xcf, 0xbc, 0x3a, 0xbe, 0x30, 0xb1, 0x88, 0x3d, 0x8c, 0x28, 0x2d, 0x3e,
  0x98, 0x18, 0xf7, 0x3d, 0x90, 0x76, 0x60, 0x3e, 0xf8, 0x4e, 0xbb, 0x3d,
  0xf8, 0x3b, 0x76, 0x3e, 0x6f, 0xfc, 0x89, 0xbe, 0xd0, 0x17, 0x75, 0x3e,
  0xed, 0x02, 0x3b, 0xbe, 0x62, 0x81, 0x1d, 0x3e, 0x7c, 0x99, 0x01, 0x3e,
  0x58, 0x1a, 0x4b, 0x3d, 0xc5, 0x4d, 0x8c, 0xbe, 0x8b, 0x20, 0x04, 0xbe,
  0xc6, 0x47, 0x04, 0x3e, 0x54, 0x14, 0x8d, 0x3d, 0x13, 0x66, 0x4c, 0xbe,
  0xac, 0x1b, 0xd2, 0x3d, 0x29, 0xc3, 0x91, 0xbe, 0xee, 0xed, 0x17, 0xbe,
  0x80, 0x0d, 0x40, 0xbc, 0x08, 0x8d, 0xf8, 0x3d, 0xf6, 0xd6, 0x83, 0x3e,
  0x10, 0x77, 0x7d, 0xbe, 0x85, 0xa4, 0x92, 0xbe, 0x04, 0x10, 0xc9, 0x3d,
  0xc0, 0x92, 0xc3, 0xbc, 0xa2, 0xe9, 0x2f, 0x3e, 0xdb, 0x1e, 0x6a, 0xbe,
  0x56, 0xd3, 0x8d, 0x3e, 0x60, 0x9e, 0x2f, 0x3c, 0xce, 0x7c, 0x6b, 0xbe,
  0x00, 0x61, 0xad, 0xbb, 0xfa, 0xa1, 0x35, 0x3e, 0x50, 0x5e, 0x8d, 0xbc,
  0x8e, 0xdb, 0x73, 0xbe, 0x04, 0x83, 0x0f, 0xbe, 0xe0, 0xc8, 0xf2, 0xbc,
  0xd6, 0xc9, 0x22, 0xbe, 0xba, 0x53, 0x93, 0x3e, 0x10, 0x5a, 0x5f, 0x3e,
  0x00, 0xf0, 0xf7, 0x3b, 0x10, 0x3a, 0x83, 0xbe, 0x8c, 0xb8, 0x80, 0xbe,
  0xb4, 0xbb, 0x8b, 0x3e, 0xf8, 0x01, 0x72, 0x3e, 0xf8, 0x06, 0x21, 0x3d,
  0xa5, 0xc6, 0x13, 0xbe, 0x38, 0x7a, 0xf8, 0xbd, 0x6c, 0x6d, 0xeb, 0xbd,
  0x40, 0x54, 0xa6, 0xbd, 0x64, 0x0d, 0x7b, 0x3e, 0xc0, 0xeb, 0xd6, 0xbb,
  0xd1, 0x02, 0x31, 0xbe, 0x78, 0x46, 0xec, 0x3d, 0xf4, 0xe0, 0x97, 0x3d,
  0x38, 0x60, 0x70, 0x3d, 0x62, 0x70, 0x45, 0xbe, 0x49, 0x79, 0x58, 0xbe,
  0x10, 0x7e, 0x2c, 0xbd, 0x95, 0x41, 0x0f, 0xbe, 0xf4, 0x53, 0x56, 0x3e,
  0xee, 0xab, 0x8e, 0xbe, 0x14, 0x76, 0x93, 0xbe, 0x28, 0x42, 0x48, 0x3d,
  0x22, 0x80, 0x12, 0x3e, 0xf0, 0x9a, 0x56, 0x3e, 0x26, 0xee, 0x89, 0x3e,
  0x68, 0xdf, 0x4a, 0x3e, 0xb6, 0x80, 0x87, 0xbe, 0x2c, 0xea, 0x26, 0x3e,
  0xcf, 0x97, 0x24, 0xbe, 0x19, 0xc4, 0x4d, 0xbe, 0x30, 0x7e, 0x7c, 0xbe,
  0xf2, 0x84, 0x16, 0xbe, 0x84, 0xd3, 0x24, 0xbe, 0x38, 0x80, 0x74, 0x3e,
  0x8c, 0xad, 0xe6, 0xbd, 0x8f, 0x5f, 0x54, 0xbe, 0xf4, 0x69, 0x28, 0xbe,
  0x98, 0x41, 0x85, 0x3d, 0x08, 0x40, 0x9c, 0xbd, 0x42, 0x66, 0x94, 0xbe,
  0xe8, 0x19, 0xa4, 0x3d, 0x58, 0xa8, 0x69, 0x3e, 0x80, 0x78, 0x52, 0xbe,
  0x34, 0x17, 0x81, 0xbe, 0x9c, 0xa8, 0x8b, 0xbe, 0xb0, 0xe0, 0x89, 0x3e,
  0x99, 0x59, 0x80, 0xbe, 0x08, 0x3f, 0x3e, 0x3d, 0xbe, 0x67, 0x06, 0x3e,
  0x6c, 0xed, 0xe0, 0x3d, 0x37, 0x05, 0x07, 0xbe, 0xd0, 0xb2, 0x17, 0x3e,
  0x00, 0xa7, 0xbc, 0xba, 0x20, 0xdc, 0x43, 0x3e, 0x90, 0x92, 0x1c, 0x3d,
  0x1c, 0x03, 0xf6, 0x3d, 0x78, 0xfd, 0xff, 0xff, 0x7c, 0xfd, 0xff, 0xff,
  0x0f, 0x00, 0x00, 0x00, 0x4d, 0x4c, 0x49, 0x52, 0x20, 0x43, 0x6f, 0x6e,
  0x76, 0x65, 0x72, 0x74, 0x65, 0x64, 0x2e, 0x00, 0x01, 0x00, 0x00, 0x00,
  0x14, 0x00, 0x00, 0x00, 0x00, 0x00, 0x0e, 0x00, 0x18, 0x00, 0x14, 0x00,
  0x10, 0x00, 0x0c, 0x00, 0x08, 0x00, 0x04, 0x00, 0x0e, 0x00, 0x00, 0x00,
  0x14, 0x00, 0x00, 0x00, 0x1c, 0x00, 0x00, 0x00, 0xac, 0x00, 0x00, 0x00,
  0xb0, 0x00, 0x00, 0x00, 0xb4, 0x00, 0x00, 0x00, 0x04, 0x00, 0x00, 0x00,
  0x6d, 0x61, 0x69, 0x6e, 0x00, 0x00, 0x00, 0x00, 0x02, 0x00, 0x00, 0x00,
  0x60, 0x00, 0x00, 0x00, 0x14, 0x00, 0x00, 0x00, 0x00, 0x00, 0x0e, 0x00,
  0x1a, 0x00, 0x14, 0x00, 0x10, 0x00, 0x0c, 0x00, 0x0b, 0x00, 0x04, 0x00,
  0x0e, 0x00, 0x00, 0x00, 0x1c, 0x00, 0x00, 0x00, 0x00, 0x00, 0x00, 0x09,
  0x1c, 0x00, 0x00, 0x00, 0x20, 0x00, 0x00, 0x00, 0x01, 0x00, 0x00, 0x00,
  0x00, 0x00, 0x06, 0x00, 0x08, 0x00, 0x04, 0x00, 0x06, 0x00, 0x00, 0x00,
  0x00, 0x00, 0x80, 0x3f, 0x01, 0x00, 0x00, 0x00, 0x03, 0x00, 0x00, 0x00,
  0x01, 0x00, 0x00, 0x00, 0x02, 0x00, 0x00, 0x00, 0x00, 0x00, 0x0e, 0x00,
  0x14, 0x00, 0x00, 0x00, 0x10, 0x00, 0x0c, 0x00, 0x0b, 0x00, 0x04, 0x00,
  0x0e, 0x00, 0x00, 0x00, 0x10, 0x00, 0x00, 0x00, 0x00, 0x00, 0x00, 0x08,
  0x0c, 0x00, 0x00, 0x00, 0x10, 0x00, 0x00, 0x00, 0x48, 0xfe, 0xff, 0xff,
  0x01, 0x00, 0x00, 0x00, 0x02, 0x00, 0x00, 0x00, 0x03, 0x00, 0x00, 0x00,
  0x00, 0x00, 0x00, 0x00, 0x01, 0x00, 0x00, 0x00, 0xff, 0xff, 0xff, 0xff,
  0x01, 0x00, 0x00, 0x00, 0x03, 0x00, 0x00, 0x00, 0x01, 0x00, 0x00, 0x00,
  0x00, 0x00, 0x00, 0x00, 0x04, 0x00, 0x00, 0x00, 0x60, 0x01, 0x00, 0x00,
  0xf8, 0x00, 0x00, 0x00, 0x60, 0x00, 0x00, 0x00, 0x04, 0x00, 0x00, 0x00,
  0xc6, 0xfe, 0xff, 0xff, 0x00, 0x00, 0x00, 0x01, 0x14, 0x00, 0x00, 0x00,
  0x1c, 0x00, 0x00, 0x00, 0x1c, 0x00, 0x00, 0x00, 0x04, 0x00, 0x00, 0x00,
  0x34, 0x00, 0x00, 0x00, 0x02, 0x00, 0x00, 0x00, 0xff, 0xff, 0xff, 0xff,
  0x14, 0x00, 0x00, 0x00, 0xb0, 0xfe, 0xff, 0xff, 0x1b, 0x00, 0x00, 0x00,
  0x53, 0x74, 0x61, 0x74, 0x65, 0x66, 0x75, 0x6c, 0x50, 0x61, 0x72, 0x74,
  0x69, 0x74, 0x69, 0x6f, 0x6e, 0x65, 0x64, 0x43, 0x61, 0x6c, 0x6c, 0x5f,
  0x31, 0x3a, 0x30, 0x00, 0x02, 0x00, 0x00, 0x00, 0x01, 0x00, 0x00, 0x00,
  0x14, 0x00, 0x00, 0x00, 0x1e, 0xff, 0xff, 0xff, 0x00, 0x00, 0x00, 0x01,
  0x14, 0x00, 0x00, 0x00, 0x1c, 0x00, 0x00, 0x00, 0x1c, 0x00, 0x00, 0x00,
  0x03, 0x00, 0x00, 0x00, 0x58, 0x00, 0x00, 0x00, 0x02, 0x00, 0x00, 0x00,
  0xff, 0xff, 0xff, 0xff, 0x14, 0x00, 0x00, 0x00, 0x08, 0xff, 0xff, 0xff,
  0x3c, 0x00, 0x00, 0x00, 0x66, 0x75, 0x6e, 0x63, 0x74, 0x69, 0x6f, 0x6e,
  0x61, 0x6c, 0x5f, 0x32, 0x5f, 0x31, 0x2f, 0x6c, 0x61, 0x79, 0x65, 0x72,
  0x5f, 0x32, 0x5f, 0x31, 0x2f, 0x4d, 0x61, 0x74, 0x4d, 0x75, 0x6c, 0x3b,
  0x66, 0x75, 0x6e, 0x63, 0x74, 0x69, 0x6f, 0x6e, 0x61, 0x6c, 0x5f, 0x32,
  0x5f, 0x31, 0x2f, 0x6c, 0x61, 0x79, 0x65, 0x72, 0x5f, 0x32, 0x5f, 0x31,
  0x2f, 0x41, 0x64, 0x64, 0x00, 0x00, 0x00, 0x00, 0x02, 0x00, 0x00, 0x00,
  0x01, 0x00, 0x00, 0x00, 0x14, 0x00, 0x00, 0x00, 0x00, 0x00, 0x16, 0x00,
  0x18, 0x00, 0x14, 0x00, 0x00, 0x00, 0x10, 0x00, 0x0c, 0x00, 0x08, 0x00,
  0x00, 0x00, 0x00, 0x00, 0x00, 0x00, 0x07, 0x00, 0x16, 0x00, 0x00, 0x00,
  0x00, 0x00, 0x00, 0x01, 0x10, 0x00, 0x00, 0x00, 0x10, 0x00, 0x00, 0x00,
  0x02, 0x00, 0x00, 0x00, 0x2c, 0x00, 0x00, 0x00, 0x8c, 0xff, 0xff, 0xff,
  0x1f, 0x00, 0x00, 0x00, 0x66, 0x75, 0x6e, 0x63, 0x74, 0x69, 0x6f, 0x6e,
  0x61, 0x6c, 0x5f, 0x32, 0x5f, 0x31, 0x2f, 0x6c, 0x61, 0x79, 0x65, 0x72,
  0x5f, 0x32, 0x5f, 0x31, 0x2f, 0x4d, 0x61, 0x74, 0x4d, 0x75, 0x6c, 0x00,
  0x02, 0x00, 0x00, 0x00, 0x14, 0x00, 0x00, 0x00, 0x32, 0x00, 0x00, 0x00,
  0x00, 0x00, 0x16, 0x00, 0x1c, 0x00, 0x18, 0x00, 0x00, 0x00, 0x14, 0x00,
  0x10, 0x00, 0x0c, 0x00, 0x00, 0x00, 0x00, 0x00, 0x08, 0x00, 0x07, 0x00,
  0x16, 0x00, 0x00, 0x00, 0x00, 0x00, 0x00, 0x01, 0x14, 0x00, 0x00, 0x00,
  0x20, 0x00, 0x00, 0x00, 0x20, 0x00, 0x00, 0x00, 0x01, 0x00, 0x00, 0x00,
  0x40, 0x00, 0x00, 0x00, 0x02, 0x00, 0x00, 0x00, 0xff, 0xff, 0xff, 0xff,
  0x32, 0x00, 0x00, 0x00, 0x04, 0x00, 0x04, 0x00, 0x04, 0x00, 0x00, 0x00,
  0x20, 0x00, 0x00, 0x00, 0x73, 0x65, 0x72, 0x76, 0x69, 0x6e, 0x67, 0x5f,
  0x64, 0x65, 0x66, 0x61, 0x75, 0x6c, 0x74, 0x5f, 0x6b, 0x65, 0x72, 0x61,
  0x73, 0x5f, 0x74, 0x65, 0x6e, 0x73, 0x6f, 0x72, 0x5f, 0x35, 0x3a, 0x30,
  0x00, 0x00, 0x00, 0x00, 0x02, 0x00, 0x00, 0x00, 0x01, 0x00, 0x00, 0x00,
  0x32, 0x00, 0x00, 0x00, 0x02, 0x00, 0x00, 0x00, 0x20, 0x00, 0x00, 0x00,
  0x04, 0x00, 0x00, 0x00, 0xf4, 0xff, 0xff, 0xff, 0x19, 0x00, 0x00, 0x00,
  0x00, 0x00, 0x00, 0x19, 0x0c, 0x00, 0x0c, 0x00, 0x0b, 0x00, 0x00, 0x00,
  0x00, 0x00, 0x04, 0x00, 0x0c, 0x00, 0x00, 0x00, 0x09, 0x00, 0x00, 0x00,
  0x00, 0x00, 0x00, 0x09
};
const int g_model_len = 5224;
