unsigned char simple_single_layer_model_data[] = {
  0x1c, 0x00, 0x00, 0x00, 0x54, 0x46, 0x4c, 0x33, 0x14, 0x00, 0x20, 0x00,
  0x1c, 0x00, 0x18, 0x00, 0x14, 0x00, 0x10, 0x00, 0x0c, 0x00, 0x00, 0x00,
  0x08, 0x00, 0x04, 0x00, 0x14, 0x00, 0x00, 0x00, 0x1c, 0x00, 0x00, 0x00,
  0x98, 0x00, 0x00, 0x00, 0xf0, 0x00, 0x00, 0x00, 0x40, 0x05, 0x00, 0x00,
  0x50, 0x05, 0x00, 0x00, 0x14, 0x08, 0x00, 0x00, 0x03, 0x00, 0x00, 0x00,
  0x01, 0x00, 0x00, 0x00, 0x10, 0x00, 0x00, 0x00, 0x00, 0x00, 0x0a, 0x00,
  0x10, 0x00, 0x0c, 0x00, 0x08, 0x00, 0x04, 0x00, 0x0a, 0x00, 0x00, 0x00,
  0x0c, 0x00, 0x00, 0x00, 0x1c, 0x00, 0x00, 0x00, 0x3c, 0x00, 0x00, 0x00,
  0x0f, 0x00, 0x00, 0x00, 0x73, 0x65, 0x72, 0x76, 0x69, 0x6e, 0x67, 0x5f,
  0x64, 0x65, 0x66, 0x61, 0x75, 0x6c, 0x74, 0x00, 0x01, 0x00, 0x00, 0x00,
  0x04, 0x00, 0x00, 0x00, 0x90, 0xff, 0xff, 0xff, 0x03, 0x00, 0x00, 0x00,
  0x04, 0x00, 0x00, 0x00, 0x08, 0x00, 0x00, 0x00, 0x6f, 0x75, 0x74, 0x70,
  0x75, 0x74, 0x5f, 0x30, 0x00, 0x00, 0x00, 0x00, 0x01, 0x00, 0x00, 0x00,
  0x04, 0x00, 0x00, 0x00, 0xae, 0xfe, 0xff, 0xff, 0x04, 0x00, 0x00, 0x00,
  0x0c, 0x00, 0x00, 0x00, 0x6b, 0x65, 0x72, 0x61, 0x73, 0x5f, 0x74, 0x65,
  0x6e, 0x73, 0x6f, 0x72, 0x00, 0x00, 0x00, 0x00, 0x02, 0x00, 0x00, 0x00,
  0x34, 0x00, 0x00, 0x00, 0x04, 0x00, 0x00, 0x00, 0xdc, 0xff, 0xff, 0xff,
  0x06, 0x00, 0x00, 0x00, 0x04, 0x00, 0x00, 0x00, 0x13, 0x00, 0x00, 0x00,
  0x43, 0x4f, 0x4e, 0x56, 0x45, 0x52, 0x53, 0x49, 0x4f, 0x4e, 0x5f, 0x4d,
  0x45, 0x54, 0x41, 0x44, 0x41, 0x54, 0x41, 0x00, 0x08, 0x00, 0x0c, 0x00,
  0x08, 0x00, 0x04, 0x00, 0x08, 0x00, 0x00, 0x00, 0x05, 0x00, 0x00, 0x00,
  0x04, 0x00, 0x00, 0x00, 0x13, 0x00, 0x00, 0x00, 0x6d, 0x69, 0x6e, 0x5f,
  0x72, 0x75, 0x6e, 0x74, 0x69, 0x6d, 0x65, 0x5f, 0x76, 0x65, 0x72, 0x73,
  0x69, 0x6f, 0x6e, 0x00, 0x07, 0x00, 0x00, 0x00, 0x4c, 0x04, 0x00, 0x00,
  0x44, 0x04, 0x00, 0x00, 0xd4, 0x00, 0x00, 0x00, 0x9c, 0x00, 0x00, 0x00,
  0x94, 0x00, 0x00, 0x00, 0x74, 0x00, 0x00, 0x00, 0x04, 0x00, 0x00, 0x00,
  0x46, 0xff, 0xff, 0xff, 0x04, 0x00, 0x00, 0x00, 0x60, 0x00, 0x00, 0x00,
  0x10, 0x00, 0x00, 0x00, 0x00, 0x00, 0x00, 0x00, 0x08, 0x00, 0x0e, 0x00,
  0x08, 0x00, 0x04, 0x00, 0x08, 0x00, 0x00, 0x00, 0x10, 0x00, 0x00, 0x00,
  0x24, 0x00, 0x00, 0x00, 0x00, 0x00, 0x06, 0x00, 0x08, 0x00, 0x04, 0x00,
  0x06, 0x00, 0x00, 0x00, 0x04, 0x00, 0x00, 0x00, 0x00, 0x00, 0x00, 0x00,
  0x0c, 0x00, 0x18, 0x00, 0x14, 0x00, 0x10, 0x00, 0x0c, 0x00, 0x04, 0x00,
  0x0c, 0x00, 0x00, 0x00, 0x81, 0x63, 0x31, 0xf0, 0x27, 0x5a, 0xbe, 0x12,
  0x02, 0x00, 0x00, 0x00, 0x02, 0x00, 0x00, 0x00, 0x04, 0x00, 0x00, 0x00,
  0x06, 0x00, 0x00, 0x00, 0x32, 0x2e, 0x31, 0x37, 0x2e, 0x30, 0x00, 0x00,
  0xb2, 0xff, 0xff, 0xff, 0x04, 0x00, 0x00, 0x00, 0x10, 0x00, 0x00, 0x00,
  0x31, 0x2e, 0x35, 0x2e, 0x30, 0x00, 0x00, 0x00, 0x00, 0x00, 0x00, 0x00,
  0x00, 0x00, 0x00, 0x00, 0xb8, 0xf9, 0xff, 0xff, 0xd2, 0xff, 0xff, 0xff,
  0x04, 0x00, 0x00, 0x00, 0x20, 0x00, 0x00, 0x00, 0x00, 0x00, 0x00, 0x00,
  0x00, 0x00, 0x00, 0x00, 0x00, 0x00, 0x00, 0x00, 0x00, 0x00, 0x00, 0x00,
  0x00, 0x00, 0x00, 0x00, 0x00, 0x00, 0x00, 0x00, 0x00, 0x00, 0x00, 0x00,
  0x00, 0x00, 0x00, 0x00, 0x00, 0x00, 0x06, 0x00, 0x08, 0x00, 0x04, 0x00,
  0x06, 0x00, 0x00, 0x00, 0x04, 0x00, 0x00, 0x00, 0x60, 0x03, 0x00, 0x00,
  0xd0, 0x1c, 0x0e, 0x3e, 0x66, 0x7a, 0x68, 0x3e, 0x40, 0xf6, 0x65, 0x3b,
  0x7c, 0xe0, 0x25, 0xbe, 0x84, 0x80, 0xa7, 0x3d, 0xa6, 0x05, 0x5d, 0x3e,
  0x4d, 0x92, 0xf9, 0xbd, 0xc0, 0xbb, 0x72, 0x3c, 0x70, 0xa4, 0xde, 0xbd,
  0xb6, 0x59, 0x15, 0x3e, 0x04, 0x4d, 0x30, 0xbe, 0xd6, 0x52, 0x27, 0x3e,
  0xf6, 0x8e, 0x70, 0x3e, 0x32, 0xde, 0x47, 0xbe, 0xf0, 0x98, 0x2b, 0x3e,
  0x18, 0x06, 0x37, 0xbd, 0x0c, 0x29, 0x26, 0xbe, 0x70, 0xdf, 0x10, 0xbe,
  0x86, 0xa3, 0x2b, 0x3e, 0x64, 0x77, 0x90, 0x3d, 0x41, 0x62, 0x6c, 0xbe,
  0x9c, 0x72, 0x0f, 0xbe, 0x78, 0xa5, 0x3d, 0xbe, 0x8c, 0x3a, 0x5a, 0x3e,
  0x36, 0x0a, 0x30, 0x3e, 0xde, 0xa1, 0xb8, 0xbd, 0x50, 0x22, 0xc6, 0xbd,
  0x60, 0x0d, 0xa5, 0xbc, 0x22, 0xaf, 0x75, 0x3e, 0xb4, 0xd4, 0x84, 0x3d,
  0xd8, 0xfe, 0x0c, 0x3d, 0xa2, 0x43, 0x8c, 0xbd, 0x5e, 0x6f, 0x5c, 0x3e,
  0xf2, 0xd4, 0x30, 0x3e, 0x80, 0x3e, 0x53, 0x3b, 0xd4, 0xe8, 0x24, 0x3e,
  0x46, 0x9d, 0x51, 0x3e, 0x30, 0x94, 0x1f, 0xbe, 0x6c, 0x16, 0x29, 0xbd,
  0xb0, 0x56, 0x04, 0x3e, 0xb2, 0x8c, 0x65, 0x3e, 0xb8, 0x4c, 0x3c, 0x3e,
  0xdc, 0xac, 0x30, 0xbe, 0xc2, 0xc7, 0x6e, 0x3e, 0xf0, 0x04, 0x9f, 0xbc,
  0x90, 0xcb, 0x19, 0x3d, 0x40, 0x2c, 0xf2, 0xbc, 0xf0, 0x14, 0xe5, 0xbd,
  0xca, 0x11, 0x5c, 0xbe, 0x10, 0xc6, 0xed, 0xbd, 0xac, 0x57, 0x89, 0xbd,
  0xd0, 0xd2, 0x39, 0x3e, 0x02, 0xb4, 0x43, 0xbe, 0x08, 0xcb, 0xd8, 0xbd,
  0x80, 0x25, 0xcb, 0x3a, 0x4e, 0xbc, 0x57, 0x3e, 0xd6, 0x51, 0x70, 0x3e,
  0xb3, 0x2d, 0x41, 0xbe, 0xd2, 0x13, 0x7a, 0xbe, 0x64, 0xb4, 0x0a, 0xbd,
  0x13, 0xa1, 0x30, 0xbe, 0xda, 0x19, 0x7a, 0x3e, 0x28, 0xed, 0x77, 0x3e,
  0xa0, 0x88, 0x95, 0x3d, 0x74, 0x59, 0x48, 0xbe, 0xee, 0x00, 0x13, 0xbe,
  0x10, 0x45, 0x50, 0xbc, 0x34, 0xc4, 0x10, 0xbe, 0x50, 0x07, 0x9b, 0xbd,
  0x74, 0xe1, 0x39, 0xbd, 0x90, 0x75, 0x58, 0x3d, 0xd0, 0x65, 0x0d, 0x3d,
  0x6c, 0xf6, 0xcd, 0x3d, 0x00, 0x13, 0xed, 0x3c, 0xe4, 0xf6, 0x03, 0xbe,
  0xea, 0x63, 0x8d, 0xbd, 0x10, 0x41, 0x23, 0x3d, 0x92, 0x99, 0x5f, 0x3e,
  0x00, 0xe0, 0xc0, 0xbd, 0x60, 0x32, 0x84, 0x3d, 0xcd, 0x56, 0x74, 0xbe,
  0x80, 0xa0, 0x32, 0x3e, 0x8a, 0x95, 0x66, 0xbe, 0x5a, 0x02, 0xa7, 0xbd,
  0x50, 0xaf, 0x90, 0x3d, 0xd8, 0x7d, 0x6c, 0x3e, 0xe8, 0xe6, 0x96, 0xbc,
  0xca, 0x1a, 0x3a, 0xbe, 0xe0, 0x4f, 0xfb, 0x3c, 0x6c, 0xd0, 0x8c, 0x3d,
  0x40, 0x84, 0x13, 0x3e, 0x60, 0x9c, 0xb0, 0xbc, 0x12, 0x34, 0x15, 0x3e,
  0x80, 0x40, 0xfb, 0x3c, 0x44, 0xf4, 0x30, 0xbe, 0x3c, 0xa5, 0x0a, 0x3e,
  0xc0, 0x31, 0x8a, 0x3c, 0x16, 0xe5, 0x0c, 0xbe, 0x18, 0x83, 0x00, 0xbd,
  0x7e, 0xa1, 0x86, 0xbd, 0x74, 0x30, 0x1d, 0x3e, 0x38, 0x0c, 0xc0, 0xbd,
  0x3a, 0x05, 0x88, 0xbd, 0xa0, 0xec, 0xac, 0x3c, 0xe8, 0xe8, 0xa3, 0x3d,
  0x32, 0xd4, 0x62, 0xbe, 0x50, 0x61, 0xf2, 0x3c, 0x2c, 0x44, 0xac, 0xbd,
  0x66, 0x9d, 0x4c, 0x3e, 0xd8, 0x17, 0x4b, 0xbe, 0xea, 0xcd, 0x0e, 0x3e,
  0xa2, 0x6b, 0x5f, 0x3e, 0xd8, 0x83, 0x21, 0x3e, 0x86, 0x59, 0x54, 0x3e,
  0x48, 0x79, 0x18, 0x3d, 0xe6, 0xb7, 0x04, 0xbe, 0xc6, 0x85, 0xf5, 0xbd,
  0xd4, 0x28, 0x75, 0x3e, 0xa0, 0xc4, 0x58, 0xbc, 0x00, 0x50, 0xeb, 0xba,
  0xb6, 0x25, 0x45, 0xbe, 0x28, 0x4b, 0x2d, 0xbe, 0xa0, 0xc6, 0x59, 0x3c,
  0x5a, 0x7b, 0xe1, 0xbd, 0x48, 0x62, 0xc6, 0x3d, 0x7c, 0xce, 0xbb, 0x3d,
  0x70, 0x51, 0xe2, 0x3d, 0xf1, 0xe6, 0x52, 0xbe, 0x7c, 0x35, 0x1e, 0x3e,
  0xde, 0x07, 0x75, 0x3e, 0x08, 0xb7, 0x06, 0xbd, 0xd8, 0x8c, 0x62, 0x3d,
  0xa2, 0xbb, 0xac, 0xbd, 0xbc, 0x08, 0x30, 0xbe, 0x58, 0x61, 0x75, 0x3e,
  0x0f, 0x98, 0x0e, 0xbe, 0xc0, 0xcf, 0x00, 0x3e, 0xc0, 0x1b, 0x2e, 0xbe,
  0x88, 0xbb, 0x02, 0xbd, 0xf0, 0xcd, 0x5d, 0x3e, 0x20, 0x4d, 0xb5, 0x3c,
  0x02, 0x6d, 0x4c, 0xbe, 0x16, 0x2a, 0x96, 0xbd, 0xa6, 0xa1, 0x40, 0x3e,
  0x72, 0x2e, 0xa8, 0xbd, 0xa0, 0x96, 0x15, 0xbd, 0x74, 0xfc, 0x79, 0x3e,
  0x3c, 0x02, 0x3b, 0xbe, 0xae, 0x75, 0x61, 0x3e, 0x52, 0xd2, 0x9c, 0xbd,
  0x90, 0xb9, 0x41, 0x3e, 0x2c, 0xc4, 0x92, 0x3d, 0x0c, 0xe5, 0x7d, 0xbd,
  0xc0, 0x75, 0x58, 0xbd, 0xb0, 0x41, 0x7a, 0xbe, 0xca, 0xb4, 0x2c, 0x3e,
  0xbc, 0x53, 0xbc, 0x3d, 0x5c, 0x4d, 0xc9, 0x3d, 0x0e, 0xa1, 0x9f, 0xbd,
  0x12, 0x9c, 0x37, 0x3e, 0xa8, 0xaa, 0x3a, 0xbe, 0xc0, 0xfd, 0xc9, 0x3d,
  0x4e, 0xe3, 0x1c, 0x3e, 0xb0, 0x0b, 0x72, 0x3e, 0x26, 0x60, 0xa5, 0xbd,
  0x60, 0x26, 0x40, 0x3c, 0x2d, 0xf2, 0x2e, 0xbe, 0x66, 0xa4, 0xf1, 0xbd,
  0xdc, 0x8c, 0x4d, 0x3e, 0xdd, 0x86, 0x5e, 0xbe, 0xcc, 0x5a, 0xd4, 0x3d,
  0x30, 0x7b, 0x3f, 0xbc, 0x08, 0xf9, 0x2f, 0x3d, 0xac, 0x1d, 0xed, 0x3d,
  0x70, 0xba, 0x89, 0xbc, 0x4a, 0x51, 0x1b, 0x3e, 0xaa, 0x8a, 0xc7, 0xbd,
  0x08, 0x6c, 0x5c, 0xbe, 0xf0, 0x5d, 0x3b, 0x3e, 0x42, 0xb8, 0x59, 0x3e,
  0x30, 0x7c, 0x1a, 0xbd, 0xc6, 0x9d, 0xc0, 0xbd, 0x3c, 0x24, 0x1d, 0x3e,
  0x72, 0x2c, 0x29, 0xbe, 0xc0, 0x77, 0xe9, 0xbd, 0xec, 0xb4, 0xea, 0x3d,
  0x78, 0xa9, 0xf7, 0xbc, 0xf6, 0x3d, 0x25, 0xbe, 0x00, 0x21, 0xf6, 0xbb,
  0x85, 0x73, 0x49, 0xbe, 0xb4, 0x11, 0x0d, 0x3e, 0xe4, 0x3b, 0x30, 0xbe,
  0x16, 0x81, 0x4c, 0x3e, 0xb0, 0xff, 0xc5, 0xbd, 0x18, 0x81, 0x5f, 0xbe,
  0x8e, 0x50, 0xd5, 0xbd, 0x8c, 0xee, 0x0e, 0xbd, 0x0e, 0x69, 0x2c, 0xbe,
  0x6e, 0xb2, 0x70, 0x3e, 0x30, 0x21, 0x7a, 0xbc, 0x14, 0xae, 0x03, 0xbd,
  0x62, 0x2f, 0x55, 0xbe, 0x90, 0x5a, 0x79, 0xbd, 0x10, 0xe6, 0x72, 0x3d,
  0xdc, 0x78, 0xe0, 0xbd, 0x3c, 0x06, 0x75, 0x3e, 0xe2, 0xb1, 0x1d, 0xbe,
  0x33, 0xfd, 0x65, 0xbe, 0x20, 0xef, 0x7f, 0x3d, 0x68, 0x0e, 0x31, 0x3e,
  0x5c, 0x97, 0x5e, 0x3e, 0x94, 0xf7, 0x6f, 0xbd, 0x7e, 0x9d, 0x2d, 0xbe,
  0xec, 0xa6, 0x4e, 0x3e, 0x20, 0xa5, 0x65, 0x3e, 0x2c, 0x21, 0x86, 0x3d,
  0x5c, 0xfd, 0xff, 0xff, 0x60, 0xfd, 0xff, 0xff, 0x0f, 0x00, 0x00, 0x00,
  0x4d, 0x4c, 0x49, 0x52, 0x20, 0x43, 0x6f, 0x6e, 0x76, 0x65, 0x72, 0x74,
  0x65, 0x64, 0x2e, 0x00, 0x01, 0x00, 0x00, 0x00, 0x14, 0x00, 0x00, 0x00,
  0x00, 0x00, 0x0e, 0x00, 0x18, 0x00, 0x14, 0x00, 0x10, 0x00, 0x0c, 0x00,
  0x08, 0x00, 0x04, 0x00, 0x0e, 0x00, 0x00, 0x00, 0x14, 0x00, 0x00, 0x00,
  0x1c, 0x00, 0x00, 0x00, 0x78, 0x00, 0x00, 0x00, 0x7c, 0x00, 0x00, 0x00,
  0x80, 0x00, 0x00, 0x00, 0x04, 0x00, 0x00, 0x00, 0x6d, 0x61, 0x69, 0x6e,
  0x00, 0x00, 0x00, 0x00, 0x01, 0x00, 0x00, 0x00, 0x14, 0x00, 0x00, 0x00,
  0x00, 0x00, 0x0e, 0x00, 0x14, 0x00, 0x00, 0x00, 0x10, 0x00, 0x0c, 0x00,
  0x0b, 0x00, 0x04, 0x00, 0x0e, 0x00, 0x00, 0x00, 0x1c, 0x00, 0x00, 0x00,
  0x00, 0x00, 0x00, 0x01, 0x24, 0x00, 0x00, 0x00, 0x28, 0x00, 0x00, 0x00,
  0x0c, 0x00, 0x10, 0x00, 0x00, 0x00, 0x0c, 0x00, 0x08, 0x00, 0x07, 0x00,
  0x0c, 0x00, 0x00, 0x00, 0x00, 0x00, 0x00, 0x01, 0x01, 0x00, 0x00, 0x00,
  0x01, 0x00, 0x00, 0x00, 0x01, 0x00, 0x00, 0x00, 0x03, 0x00, 0x00, 0x00,
  0x03, 0x00, 0x00, 0x00, 0x00, 0x00, 0x00, 0x00, 0x01, 0x00, 0x00, 0x00,
  0x02, 0x00, 0x00, 0x00, 0x01, 0x00, 0x00, 0x00, 0x03, 0x00, 0x00, 0x00,
  0x01, 0x00, 0x00, 0x00, 0x00, 0x00, 0x00, 0x00, 0x04, 0x00, 0x00, 0x00,
  0xa8, 0x01, 0x00, 0x00, 0x34, 0x01, 0x00, 0x00, 0x70, 0x00, 0x00, 0x00,
  0x04, 0x00, 0x00, 0x00, 0x7e, 0xfe, 0xff, 0xff, 0x00, 0x00, 0x00, 0x01,
  0x14, 0x00, 0x00, 0x00, 0x24, 0x00, 0x00, 0x00, 0x24, 0x00, 0x00, 0x00,
  0x04, 0x00, 0x00, 0x00, 0x3c, 0x00, 0x00, 0x00, 0x04, 0x00, 0x00, 0x00,
  0xff, 0xff, 0xff, 0xff, 0x20, 0x00, 0x00, 0x00, 0x20, 0x00, 0x00, 0x00,
  0x08, 0x00, 0x00, 0x00, 0x68, 0xfe, 0xff, 0xff, 0x1b, 0x00, 0x00, 0x00,
  0x53, 0x74, 0x61, 0x74, 0x65, 0x66, 0x75, 0x6c, 0x50, 0x61, 0x72, 0x74,
  0x69, 0x74, 0x69, 0x6f, 0x6e, 0x65, 0x64, 0x43, 0x61, 0x6c, 0x6c, 0x5f,
  0x31, 0x3a, 0x30, 0x00, 0x04, 0x00, 0x00, 0x00, 0x01, 0x00, 0x00, 0x00,
  0x20, 0x00, 0x00, 0x00, 0x20, 0x00, 0x00, 0x00, 0x08, 0x00, 0x00, 0x00,
  0x56, 0xff, 0xff, 0xff, 0x00, 0x00, 0x00, 0x01, 0x10, 0x00, 0x00, 0x00,
  0x10, 0x00, 0x00, 0x00, 0x03, 0x00, 0x00, 0x00, 0x8c, 0x00, 0x00, 0x00,
  0xb8, 0xfe, 0xff, 0xff, 0x7c, 0x00, 0x00, 0x00, 0x66, 0x75, 0x6e, 0x63,
  0x74, 0x69, 0x6f, 0x6e, 0x61, 0x6c, 0x5f, 0x31, 0x5f, 0x31, 0x2f, 0x63,
  0x6f, 0x6e, 0x76, 0x32, 0x64, 0x5f, 0x31, 0x2f, 0x52, 0x65, 0x6c, 0x75,
  0x3b, 0x66, 0x75, 0x6e, 0x63, 0x74, 0x69, 0x6f, 0x6e, 0x61, 0x6c, 0x5f,
  0x31, 0x5f, 0x31, 0x2f, 0x63, 0x6f, 0x6e, 0x76, 0x32, 0x64, 0x5f, 0x31,
  0x2f, 0x61, 0x64, 0x64, 0x3b, 0x66, 0x75, 0x6e, 0x63, 0x74, 0x69, 0x6f,
  0x6e, 0x61, 0x6c, 0x5f, 0x31, 0x5f, 0x31, 0x2f, 0x63, 0x6f, 0x6e, 0x76,
  0x32, 0x64, 0x5f, 0x31, 0x2f, 0x63, 0x6f, 0x6e, 0x76, 0x6f, 0x6c, 0x75,
  0x74, 0x69, 0x6f, 0x6e, 0x3b, 0x66, 0x75, 0x6e, 0x63, 0x74, 0x69, 0x6f,
  0x6e, 0x61, 0x6c, 0x5f, 0x31, 0x5f, 0x31, 0x2f, 0x63, 0x6f, 0x6e, 0x76,
  0x32, 0x64, 0x5f, 0x31, 0x2f, 0x52, 0x65, 0x73, 0x68, 0x61, 0x70, 0x65,
  0x00, 0x00, 0x00, 0x00, 0x01, 0x00, 0x00, 0x00, 0x08, 0x00, 0x00, 0x00,
  0x00, 0x00, 0x16, 0x00, 0x18, 0x00, 0x14, 0x00, 0x00, 0x00, 0x10, 0x00,
  0x0c, 0x00, 0x08, 0x00, 0x00, 0x00, 0x00, 0x00, 0x00, 0x00, 0x07, 0x00,
  0x16, 0x00, 0x00, 0x00, 0x00, 0x00, 0x00, 0x01, 0x10, 0x00, 0x00, 0x00,
  0x10, 0x00, 0x00, 0x00, 0x02, 0x00, 0x00, 0x00, 0x30, 0x00, 0x00, 0x00,
  0x78, 0xff, 0xff, 0xff, 0x23, 0x00, 0x00, 0x00, 0x66, 0x75, 0x6e, 0x63,
  0x74, 0x69, 0x6f, 0x6e, 0x61, 0x6c, 0x5f, 0x31, 0x5f, 0x31, 0x2f, 0x63,
  0x6f, 0x6e, 0x76, 0x32, 0x64, 0x5f, 0x31, 0x2f, 0x63, 0x6f, 0x6e, 0x76,
  0x6f, 0x6c, 0x75, 0x74, 0x69, 0x6f, 0x6e, 0x00, 0x04, 0x00, 0x00, 0x00,
  0x08, 0x00, 0x00, 0x00, 0x03, 0x00, 0x00, 0x00, 0x03, 0x00, 0x00, 0x00,
  0x03, 0x00, 0x00, 0x00, 0x00, 0x00, 0x16, 0x00, 0x1c, 0x00, 0x18, 0x00,
  0x00, 0x00, 0x14, 0x00, 0x10, 0x00, 0x0c, 0x00, 0x00, 0x00, 0x00, 0x00,
  0x08, 0x00, 0x07, 0x00, 0x16, 0x00, 0x00, 0x00, 0x00, 0x00, 0x00, 0x01,
  0x14, 0x00, 0x00, 0x00, 0x28, 0x00, 0x00, 0x00, 0x28, 0x00, 0x00, 0x00,
  0x01, 0x00, 0x00, 0x00, 0x44, 0x00, 0x00, 0x00, 0x04, 0x00, 0x00, 0x00,
  0xff, 0xff, 0xff, 0xff, 0x20, 0x00, 0x00, 0x00, 0x20, 0x00, 0x00, 0x00,
  0x03, 0x00, 0x00, 0x00, 0x04, 0x00, 0x04, 0x00, 0x04, 0x00, 0x00, 0x00,
  0x1e, 0x00, 0x00, 0x00, 0x73, 0x65, 0x72, 0x76, 0x69, 0x6e, 0x67, 0x5f,
  0x64, 0x65, 0x66, 0x61, 0x75, 0x6c, 0x74, 0x5f, 0x6b, 0x65, 0x72, 0x61,
  0x73, 0x5f, 0x74, 0x65, 0x6e, 0x73, 0x6f, 0x72, 0x3a, 0x30, 0x00, 0x00,
  0x04, 0x00, 0x00, 0x00, 0x01, 0x00, 0x00, 0x00, 0x20, 0x00, 0x00, 0x00,
  0x20, 0x00, 0x00, 0x00, 0x03, 0x00, 0x00, 0x00, 0x01, 0x00, 0x00, 0x00,
  0x10, 0x00, 0x00, 0x00, 0x0c, 0x00, 0x0c, 0x00, 0x0b, 0x00, 0x00, 0x00,
  0x00, 0x00, 0x04, 0x00, 0x0c, 0x00, 0x00, 0x00, 0x03, 0x00, 0x00, 0x00,
  0x00, 0x00, 0x00, 0x03
};
unsigned int simple_single_layer_model_data_len = 2152;
